{
  "token_to_id": {
    "abilitychanneltime</w>": 0,
    "abilityduration</w>": 1,
    "buff_duration</w>": 2,
    "_multiplier</w>": 3,
    "_damage_pct</w>": 4,
    "multiplier</w>": 5,
    "abilitychannel": 6,
    "_duration</w>": 7,
    "_distance</w>": 8,
    "获得移动速度加成</w>": 9,
    "敌方单位造成伤害</w>": 10,
    "对非英雄单位造成</w>": 11,
    "一定百分比的伤害</w>": 12,
    "interval</w>": 13,
    "hreshold</w>": 14,
    "duration</w>": 15,
    "_tooltip</w>": 16,
    "造成伤害和眩晕</w>": 17,
    "造成伤害和减速</w>": 18,
    "移动和攻击速度</w>": 19,
    "目标的移动速度</w>": 20,
    "的敌人造成伤害</w>": 21,
    "敌人的移动速度</w>": 22,
    "减缓其移动速度</w>": 23,
    "uration</w>": 24,
    "tooltip</w>": 25,
    "_radius</w>": 26,
    "_damage</w>": 27,
    "造成额外伤害</w>": 28,
    "移动速度加成</w>": 29,
    "的一定百分比</w>": 30,
    "攻击速度加成</w>": 31,
    "攻击距离加成</w>": 32,
    "一个敌方单位</w>": 33,
    "radius</w>": 34,
    "ooltip</w>": 35,
    "d671a9</w>": 36,
    "chance</w>": 37,
    "cabe68</w>": 38,
    "7998b5</w>": 39,
    "的冷却时间</w>": 40,
    "攻击力加成</w>": 41,
    "减速和伤害</w>": 42,
    "一定百分比</w>": 43,
    "speed</w>": 44,
    "range</w>": 45,
    "multiplie": 46,
    "count</w>": 47,
    "color</w>": 48,
    "abilitych": 49,
    "abe68</w>": 50,
    "魔法抗性</w>": 51,
    "魔法伤害</w>": 52,
    "驱散类型</w>": 53,
    "驱散效果</w>": 54,
    "额外伤害</w>": 55,
    "隐身状态</w>": 56,
    "造成伤害</w>": 57,
    "负面效果</w>": 58,
    "致命一击</w>": 59,
    "背景故事</w>": 60,
    "纯粹伤害</w>": 61,
    "移动速度</w>": 62,
    "短暂眩晕</w>": 63,
    "真实视域</w>": 64,
    "的魔法值</w>": 65,
    "的攻击力</w>": 66,
    "生命恢复</w>": 67,
    "猛击地面</w>": 68,
    "物理伤害</w>": 69,
    "治疗效果</w>": 70,
    "时间越长</w>": 71,
    "无法攻击</w>": 72,
    "敌方英雄</w>": 73,
    "敌方单位</w>": 74,
    "攻击速度</w>": 75,
    "持续施法</w>": 76,
    "持续伤害</w>": 77,
    "技能描述</w>": 78,
    "得到提升</w>": 79,
    "吸血效果</w>": 80,
    "受到伤害</w>": 81,
    "友方英雄</w>": 82,
    "友方单位</w>": 83,
    "减速效果</w>": 84,
    "time</w>": 85,
    "olor</w>": 86,
    "multipli": 87,
    "interval": 88,
    "font</w>": 89,
    "elay</w>": 90,
    "cooldown": 91,
    "ance</w>": 92,
    "_pct</w>": 93,
    "_damage_": 94,
    "魔法值</w>": 95,
    "雷元素</w>": 96,
    "被眩晕</w>": 97,
    "被摧毁</w>": 98,
    "被减速</w>": 99,
    "被减缓</w>": 100,
    "范围内所有敌人": 101,
    "英雄名</w>": 102,
    "竞技场</w>": 103,
    "的能量</w>": 104,
    "的能力</w>": 105,
    "的等级</w>": 106,
    "的秘密</w>": 107,
    "的生物</w>": 108,
    "的状态</w>": 109,
    "的灵魂</w>": 110,
    "的时候</w>": 111,
    "的敌人</w>": 112,
    "的幻象</w>": 113,
    "的存在</w>": 114,
    "的地方</w>": 115,
    "的单位</w>": 116,
    "的力量</w>": 117,
    "的作用</w>": 118,
    "的伤害</w>": 119,
    "的传说</w>": 120,
    "的东西</w>": 121,
    "的世界</w>": 122,
    "生命值</w>": 123,
    "点伤害</w>": 124,
    "火元素</w>": 125,
    "攻击力</w>": 126,
    "技能6</w>": 127,
    "技能5</w>": 128,
    "技能4</w>": 129,
    "技能3</w>": 130,
    "技能2</w>": 131,
    "技能1</w>": 132,
    "强驱散</w>": 133,
    "弱驱散</w>": 134,
    "延迟后</w>": 135,
    "对敌方单位造成": 136,
    "在那里</w>": 137,
    "在一起</w>": 138,
    "取决于</w>": 139,
    "冲击波</w>": 140,
    "冰元素</w>": 141,
    "倍伤害</w>": 142,
    "事实上</w>": 143,
    "为目标</w>": 144,
    "uration": 145,
    "unt</w>": 146,
    "tip</w>": 147,
    "pct</w>": 148,
    "ooldown": 149,
    "ont</w>": 150,
    "hreshol": 151,
    "e68</w>": 152,
    "duction": 153,
    "damage_": 154,
    "attack_": 155,
    "active_": 156,
    "ability": 157,
    "_percen": 158,
    "_bonus_": 159,
    "鲜血</w>": 160,
    "魔法</w>": 161,
    "骑士</w>": 162,
    "驱散</w>": 163,
    "食人魔魔法师": 164,
    "飞行</w>": 165,
    "风暴</w>": 166,
    "领域</w>": 167,
    "隐身</w>": 168,
    "陷阱</w>": 169,
    "降低</w>": 170,
    "附近</w>": 171,
    "阵亡</w>": 172,
    "闪电</w>": 173,
    "长大</w>": 174,
    "邪恶</w>": 175,
    "造成</w>": 176,
    "迷宫</w>": 177,
    "连接</w>": 178,
    "过去</w>": 179,
    "身边</w>": 180,
    "身后</w>": 181,
    "身上</w>": 182,
    "跳跃</w>": 183,
    "距离</w>": 184,
    "越高</w>": 185,
    "越远</w>": 186,
    "越大</w>": 187,
    "超过</w>": 188,
    "起来</w>": 189,
    "诅咒</w>": 190,
    "认为</w>": 191,
    "视野</w>": 192,
    "虚空</w>": 193,
    "获得</w>": 194,
    "药剂</w>": 195,
    "范围内的敌人": 196,
    "范围</w>": 197,
    "英雄</w>": 198,
    "自身</w>": 199,
    "自己</w>": 200,
    "脉冲</w>": 201,
    "能量</w>": 202,
    "能力</w>": 203,
    "而出</w>": 204,
    "缴械</w>": 205,
    "缠绕</w>": 206,
    "结束</w>": 207,
    "经过</w>": 208,
    "终于</w>": 209,
    "精灵</w>": 210,
    "类型</w>": 211,
    "箭矢</w>": 212,
    "等级</w>": 213,
    "突袭</w>": 214,
    "空中</w>": 215,
    "移动</w>": 216,
    "离开</w>": 217,
    "碎片</w>": 218,
    "眩晕</w>": 219,
    "目标</w>": 220,
    "的是</w>": 221,
    "的人</w>": 222,
    "瘟疫</w>": 223,
    "痛苦</w>": 224,
    "生物</w>": 225,
    "生活</w>": 226,
    "生命</w>": 227,
    "现在</w>": 228,
    "状态</w>": 229,
    "爆炸</w>": 230,
    "爆发</w>": 231,
    "然而</w>": 232,
    "灵魂</w>": 233,
    "火焰</w>": 234,
    "混沌</w>": 235,
    "深渊</w>": 236,
    "消失</w>": 237,
    "法术</w>": 238,
    "法师</w>": 239,
    "法则</w>": 240,
    "沉默</w>": 241,
    "残焰</w>": 242,
    "死去</w>": 243,
    "死亡</w>": 244,
    "森林</w>": 245,
    "树木</w>": 246,
    "来说</w>": 247,
    "来了</w>": 248,
    "束缚</w>": 249,
    "杀死</w>": 250,
    "术士</w>": 251,
    "最大生命值的": 252,
    "最多</w>": 253,
    "智慧</w>": 254,
    "显形</w>": 255,
    "时间</w>": 256,
    "施法</w>": 257,
    "施放</w>": 258,
    "新星</w>": 259,
    "敏捷</w>": 260,
    "敌人</w>": 261,
    "效果</w>": 262,
    "故事</w>": 263,
    "攻击</w>": 264,
    "提升</w>": 265,
    "描述</w>": 266,
    "控制</w>": 267,
    "捉摸</w>": 268,
    "挽歌</w>": 269,
    "持续时间结束": 270,
    "持续</w>": 271,
    "拳法</w>": 272,
    "护盾</w>": 273,
    "护甲</w>": 274,
    "技能</w>": 275,
    "打击</w>": 276,
    "战斗</w>": 277,
    "战士</w>": 278,
    "战场</w>": 279,
    "战争</w>": 280,
    "成长</w>": 281,
    "意识</w>": 282,
    "意义</w>": 283,
    "恢复</w>": 284,
    "恐惧</w>": 285,
    "怪物</w>": 286,
    "形态</w>": 287,
    "幽魂</w>": 288,
    "幻象</w>": 289,
    "并且移动速度": 290,
    "年来</w>": 291,
    "对非英雄单位": 292,
    "守卫</w>": 293,
    "存在</w>": 294,
    "威力</w>": 295,
    "大师</w>": 296,
    "大地</w>": 297,
    "外壳</w>": 298,
    "增加</w>": 299,
    "地面</w>": 300,
    "在持续时间内": 301,
    "土地</w>": 302,
    "咒语</w>": 303,
    "命运</w>": 304,
    "吞噬</w>": 305,
    "同时</w>": 306,
    "召唤</w>": 307,
    "叠加</w>": 308,
    "受到伤害并被": 309,
    "反击</w>": 310,
    "友军</w>": 311,
    "危险</w>": 312,
    "单位</w>": 313,
    "区域内的敌人": 314,
    "区域</w>": 315,
    "化身</w>": 316,
    "加成</w>": 317,
    "力量</w>": 318,
    "前进</w>": 319,
    "分裂</w>": 320,
    "击退</w>": 321,
    "出来</w>": 322,
    "减速</w>": 323,
    "减缓</w>": 324,
    "减少</w>": 325,
    "决定</w>": 326,
    "冲去</w>": 327,
    "冲击</w>": 328,
    "军队</w>": 329,
    "光环</w>": 330,
    "元素</w>": 331,
    "傀儡</w>": 332,
    "信仰</w>": 333,
    "使用</w>": 334,
    "作用</w>": 335,
    "位面</w>": 336,
    "位置</w>": 337,
    "但是</w>": 338,
    "伤害</w>": 339,
    "伙伴</w>": 340,
    "仪式</w>": 341,
    "以来</w>": 342,
    "以后</w>": 343,
    "代价</w>": 344,
    "他们</w>": 345,
    "什么</w>": 346,
    "事情</w>": 347,
    "了她</w>": 348,
    "了他</w>": 349,
    "之地</w>": 350,
    "之后</w>": 351,
    "之力</w>": 352,
    "之刃</w>": 353,
    "之中</w>": 354,
    "之下</w>": 355,
    "主人</w>": 356,
    "东西</w>": 357,
    "世界</w>": 358,
    "下来</w>": 359,
    "一次</w>": 360,
    "一样</w>": 361,
    "一天</w>": 362,
    "一切</w>": 363,
    "一击</w>": 364,
    "一个敌方单位": 365,
    "terval": 366,
    "reshol": 367,
    "radius": 368,
    "percen": 369,
    "or</w>": 370,
    "multip": 371,
    "h2</w>": 372,
    "br</w>": 373,
    "bonus_": 374,
    "b5</w>": 375,
    "attack": 376,
    "a9</w>": 377,
    "_stack": 378,
    "_damag": 379,
    "50</w>": 380,
    "？</w>": 381,
    "；</w>": 382,
    "：</w>": 383,
    "，</w>": 384,
    "）</w>": 385,
    "（</w>": 386,
    "！</w>": 387,
    "龙</w>": 388,
    "魂</w>": 389,
    "高</w>": 390,
    "验</w>": 391,
    "食人魔魔法": 392,
    "飞</w>": 393,
    "风</w>": 394,
    "面</w>": 395,
    "非英雄单位": 396,
    "静</w>": 397,
    "雷</w>": 398,
    "雨</w>": 399,
    "陆</w>": 400,
    "际</w>": 401,
    "问</w>": 402,
    "长</w>": 403,
    "里</w>": 404,
    "道</w>": 405,
    "造成眩晕和": 406,
    "造成的伤害": 407,
    "造成伤害并": 408,
    "造成伤害和": 409,
    "退</w>": 410,
    "迹</w>": 411,
    "迷</w>": 412,
    "远</w>": 413,
    "进</w>": 414,
    "过</w>": 415,
    "转</w>": 416,
    "身</w>": 417,
    "路</w>": 418,
    "起</w>": 419,
    "走</w>": 420,
    "象</w>": 421,
    "说</w>": 422,
    "话</w>": 423,
    "论</w>": 424,
    "言</w>": 425,
    "解</w>": 426,
    "视</w>": 427,
    "裂</w>": 428,
    "袭</w>": 429,
    "行</w>": 430,
    "落</w>": 431,
    "获</w>": 432,
    "范围内敌人": 433,
    "范围内所有": 434,
    "舞</w>": 435,
    "至</w>": 436,
    "者</w>": 437,
    "群</w>": 438,
    "网</w>": 439,
    "统</w>": 440,
    "线</w>": 441,
    "系</w>": 442,
    "箭</w>": 443,
    "算</w>": 444,
    "笑</w>": 445,
    "空</w>": 446,
    "移动速度和": 447,
    "秒</w>": 448,
    "神</w>": 449,
    "礼</w>": 450,
    "知</w>": 451,
    "矛</w>": 452,
    "着</w>": 453,
    "盾</w>": 454,
    "目标单位的": 455,
    "目</w>": 456,
    "的敌人造成": 457,
    "的持续时间": 458,
    "的所有单位": 459,
    "的</w>": 460,
    "界</w>": 461,
    "用</w>": 462,
    "生</w>": 463,
    "球</w>": 464,
    "现</w>": 465,
    "环</w>": 466,
    "王</w>": 467,
    "犯</w>": 468,
    "特</w>": 469,
    "物</w>": 470,
    "爪</w>": 471,
    "然</w>": 472,
    "热</w>": 473,
    "点</w>": 474,
    "灵</w>": 475,
    "灭</w>": 476,
    "火</w>": 477,
    "流</w>": 478,
    "活</w>": 479,
    "波</w>": 480,
    "法</w>": 481,
    "求</w>": 482,
    "水</w>": 483,
    "气</w>": 484,
    "民</w>": 485,
    "每</w>": 486,
    "死亡之神的": 487,
    "死</w>": 488,
    "步</w>": 489,
    "止</w>": 490,
    "次</w>": 491,
    "果</w>": 492,
    "来</w>": 493,
    "杀</w>": 494,
    "术</w>": 495,
    "望</w>": 496,
    "有一定概率": 497,
    "最大生命值": 498,
    "是</w>": 499,
    "星</w>": 500,
    "时</w>": 501,
    "旁</w>": 502,
    "方</w>": 503,
    "斩</w>": 504,
    "料</w>": 505,
    "斗</w>": 506,
    "数</w>": 507,
    "散</w>": 508,
    "敌方单位的": 509,
    "敌方单位或": 510,
    "效</w>": 511,
    "攻击速度和": 512,
    "攻击力加成": 513,
    "摸</w>": 514,
    "换</w>": 515,
    "持续时间内": 516,
    "拳</w>": 517,
    "招</w>": 518,
    "手</w>": 519,
    "战</w>": 520,
    "意</w>": 521,
    "息</w>": 522,
    "性</w>": 523,
    "怒</w>": 524,
    "心</w>": 525,
    "径</w>": 526,
    "影</w>": 527,
    "形</w>": 528,
    "当前生命值": 529,
    "强</w>": 530,
    "弹</w>": 531,
    "开</w>": 532,
    "度</w>": 533,
    "幻影长矛手": 534,
    "年</w>": 535,
    "师</w>": 536,
    "尽</w>": 537,
    "少</w>": 538,
    "射</w>": 539,
    "对敌方单位": 540,
    "对</w>": 541,
    "密</w>": 542,
    "家</w>": 543,
    "安布里家族": 544,
    "子</w>": 545,
    "她</w>": 546,
    "头</w>": 547,
    "天</w>": 548,
    "大</w>": 549,
    "外</w>": 550,
    "处</w>": 551,
    "声</w>": 552,
    "墙</w>": 553,
    "域</w>": 554,
    "型</w>": 555,
    "场</w>": 556,
    "地</w>": 557,
    "在目标地点": 558,
    "在目标区域": 559,
    "在</w>": 560,
    "土</w>": 561,
    "团</w>": 562,
    "响</w>": 563,
    "命</w>": 564,
    "向目标地点": 565,
    "向目标区域": 566,
    "后</w>": 567,
    "名</w>": 568,
    "合</w>": 569,
    "口</w>": 570,
    "受到的伤害": 571,
    "受到伤害并": 572,
    "友</w>": 573,
    "及</w>": 574,
    "去</w>": 575,
    "印</w>": 576,
    "区域内所有": 577,
    "化</w>": 578,
    "势</w>": 579,
    "动</w>": 580,
    "加</w>": 581,
    "力</w>": 582,
    "前</w>": 583,
    "刺</w>": 584,
    "制</w>": 585,
    "到</w>": 586,
    "利</w>": 587,
    "刃</w>": 588,
    "击中的敌人": 589,
    "击</w>": 590,
    "出</w>": 591,
    "军团指挥官": 592,
    "军</w>": 593,
    "内</w>": 594,
    "具</w>": 595,
    "光</w>": 596,
    "像</w>": 597,
    "傲</w>": 598,
    "值</w>": 599,
    "倍</w>": 600,
    "使</w>": 601,
    "体</w>": 602,
    "住</w>": 603,
    "位</w>": 604,
    "伤</w>": 605,
    "会</w>": 606,
    "们</w>": 607,
    "令</w>": 608,
    "代</w>": 609,
    "他对自己的": 610,
    "他</w>": 611,
    "人</w>": 612,
    "于</w>": 613,
    "事</w>": 614,
    "了</w>": 615,
    "义</w>": 616,
    "为</w>": 617,
    "临</w>": 618,
    "中</w>": 619,
    "世</w>": 620,
    "下</w>": 621,
    "上</w>": 622,
    "一定百分比": 623,
    "。</w>": 624,
    "、</w>": 625,
    "…</w>": 626,
    "”</w>": 627,
    "“</w>": 628,
    "—</w>": 629,
    "·</w>": 630,
    "y</w>": 631,
    "tive_": 632,
    "t</w>": 633,
    "steal": 634,
    "speed": 635,
    "s</w>": 636,
    "r</w>": 637,
    "ility": 638,
    "e</w>": 639,
    "damag": 640,
    "d</w>": 641,
    "ction": 642,
    "creep": 643,
    "bonus": 644,
    "annel": 645,
    "_dist": 646,
    "></w>": 647,
    "=</w>": 648,
    "<</w>": 649,
    "9</w>": 650,
    "8</w>": 651,
    "5</w>": 652,
    "4</w>": 653,
    "3</w>": 654,
    "2</w>": 655,
    "1</w>": 656,
    "0</w>": 657,
    "/</w>": 658,
    ".</w>": 659,
    "-</w>": 660,
    ",</w>": 661,
    "+</w>": 662,
    "'</w>": 663,
    "%</w>": 664,
    "#</w>": 665,
    "\"</w>": 666,
    "齐天大圣": 667,
    "黑暗贤者": 668,
    "魔法抗性": 669,
    "魅惑魔女": 670,
    "骷髅弓手": 671,
    "马格纳斯": 672,
    "风暴之灵": 673,
    "附近所有": 674,
    "阿兹瑞斯": 675,
    "邪影芳灵": 676,
    "造成额外": 677,
    "造成大量": 678,
    "造成伤害": 679,
    "这个世界": 680,
    "转身速率": 681,
    "赏金猎人": 682,
    "负面状态": 683,
    "负面效果": 684,
    "虚无之灵": 685,
    "虚无之境": 686,
    "获得额外": 687,
    "范围内的": 688,
    "英雄单位": 689,
    "致命一击": 690,
    "育母蜘蛛": 691,
    "移动速度": 692,
    "祸乱之源": 693,
    "破晓辰星": 694,
    "石鳞剑士": 695,
    "短时间内": 696,
    "目标地点": 697,
    "目标单位": 698,
    "的生命值": 699,
    "的攻击力": 700,
    "瘟疫法师": 701,
    "痛苦女王": 702,
    "电炎绝手": 703,
    "生命恢复": 704,
    "生命值低": 705,
    "瑞托崔普": 706,
    "琼英碧灵": 707,
    "猴子猴孙": 708,
    "狂战士之": 709,
    "状态抗性": 710,
    "特蕾丝汀": 711,
    "炼金术士": 712,
    "灵体游魂": 713,
    "灰烬之灵": 714,
    "混沌骑士": 715,
    "注意到了": 716,
    "沉默术士": 717,
    "水晶室女": 718,
    "每次攻击": 719,
    "毁灭性的": 720,
    "死亡先知": 721,
    "死亡之神": 722,
    "森海飞霞": 723,
    "树精卫士": 724,
    "暗黑之礁": 725,
    "暗影恶魔": 726,
    "暗夜魔王": 727,
    "普通攻击": 728,
    "施放技能": 729,
    "施加一个": 730,
    "敌方英雄": 731,
    "敌方目标": 732,
    "敌方单位": 733,
    "放出一道": 734,
    "攻击速度": 735,
    "攻击距离": 736,
    "攻击敌人": 737,
    "攻击伤害": 738,
    "接下来的": 739,
    "持续时间": 740,
    "持续施法": 741,
    "恐怖利刃": 742,
    "幻影刺客": 743,
    "并且降低": 744,
    "巨魔战将": 745,
    "巨牙海民": 746,
    "将自己的": 747,
    "娜迦海妖": 748,
    "天穹守望": 749,
    "天怒法师": 750,
    "大地之灵": 751,
    "地雷滚滚": 752,
    "圣堂刺客": 753,
    "周围所有": 754,
    "司夜刺客": 755,
    "可以使用": 756,
    "召唤一个": 757,
    "变体精灵": 758,
    "受到来自": 759,
    "受到伤害": 760,
    "发现自己": 761,
    "发条技师": 762,
    "友方英雄": 763,
    "友方单位": 764,
    "卓尔游侠": 765,
    "制造一个": 766,
    "创造一个": 767,
    "减速效果": 768,
    "减益免疫": 769,
    "冷却时间": 770,
    "冥魂大帝": 771,
    "全能之神": 772,
    "克林克兹": 773,
    "伤害加上": 774,
    "仙德尔莎": 775,
    "他的力量": 776,
    "了自己的": 777,
    "不知疲倦": 778,
    "不可思议": 779,
    "上古巨神": 780,
    "一定比例": 781,
    "一个目标": 782,
    "一个敌人": 783,
    "一个单位": 784,
    "tion": 785,
    "tack": 786,
    "slow": 787,
    "shol": 788,
    "rang": 789,
    "onus": 790,
    "move": 791,
    "max_": 792,
    "mana": 793,
    "lity": 794,
    "ion_": 795,
    "down": 796,
    "dius": 797,
    "d671": 798,
    "cast": 799,
    "buff": 800,
    "ball": 801,
    "back": 802,
    "amag": 803,
    "</w>": 804,
    "7998": 805,
    "黑暗贤": 806,
    "黑暗的": 807,
    "鳞剑士": 808,
    "魔法值": 809,
    "骷髅弓": 810,
    "骷髅兵": 811,
    "骑士的": 812,
    "马格纳": 813,
    "食人魔": 814,
    "附近的": 815,
    "长矛手": 816,
    "锋利的": 817,
    "钢背兽": 818,
    "里瑟尔": 819,
    "释放出": 820,
    "都不会": 821,
    "邪恶的": 822,
    "邪影芳": 823,
    "遥远的": 824,
    "这样的": 825,
    "过程中": 826,
    "达维安": 827,
    "转化成": 828,
    "身边的": 829,
    "身上的": 830,
    "路径上": 831,
    "越来越": 832,
    "该单位": 833,
    "裂魂人": 834,
    "被称为": 835,
    "被沉默": 836,
    "被摧毁": 837,
    "虚空假": 838,
    "落地时": 839,
    "获得了": 840,
    "范围内": 841,
    "若目标": 842,
    "致命的": 843,
    "致命一": 844,
    "自身的": 845,
    "自己的": 846,
    "自己是": 847,
    "美杜莎": 848,
    "编织者": 849,
    "维萨吉": 850,
    "维罗拉": 851,
    "给他的": 852,
    "结束后": 853,
    "米拉娜": 854,
    "第一个": 855,
    "移动和": 856,
    "神圣的": 857,
    "祈求者": 858,
    "碰到的": 859,
    "石堂城": 860,
    "短暂的": 861,
    "短时间": 862,
    "着他的": 863,
    "眩晕并": 864,
    "眩晕和": 865,
    "真实视": 866,
    "直到他": 867,
    "目标的": 868,
    "目标是": 869,
    "益免疫": 870,
    "的黑暗": 871,
    "的魔法": 872,
    "的身体": 873,
    "的距离": 874,
    "的英雄": 875,
    "的能量": 876,
    "的秘密": 877,
    "的生命": 878,
    "的灵魂": 879,
    "的治疗": 880,
    "的时候": 881,
    "的方向": 882,
    "的数量": 883,
    "的敌人": 884,
    "的攻击": 885,
    "的所有": 886,
    "的战斗": 887,
    "的当前": 888,
    "的幻象": 889,
    "的年轻": 890,
    "的巫师": 891,
    "的只有": 892,
    "的叠加": 893,
    "的单位": 894,
    "的力量": 895,
    "的冷却": 896,
    "的光芒": 897,
    "的元素": 898,
    "的伤害": 899,
    "百分比": 900,
    "痛苦女": 901,
    "电炎绝": 902,
    "用他的": 903,
    "生命值": 904,
    "琼英碧": 905,
    "现在的": 906,
    "现在他": 907,
    "玛尔斯": 908,
    "王国的": 909,
    "狙击手": 910,
    "狂战士": 911,
    "物品和": 912,
    "灵魂的": 913,
    "灵体游": 914,
    "没有人": 915,
    "永恒的": 916,
    "每一个": 917,
    "母蜘蛛": 918,
    "死亡的": 919,
    "次攻击": 920,
    "森林的": 921,
    "杰奇洛": 922,
    "有几率": 923,
    "有一定": 924,
    "最近的": 925,
    "最大的": 926,
    "最后一": 927,
    "暗黑之": 928,
    "暗影之": 929,
    "暗夜魔": 930,
    "是一名": 931,
    "是一个": 932,
    "时间越": 933,
    "时间的": 934,
    "无尽的": 935,
    "施放时": 936,
    "新生儿": 937,
    "斯拉达": 938,
    "斯拉克": 939,
    "敌人的": 940,
    "攻击时": 941,
    "攻击或": 942,
    "攻击和": 943,
    "攻击力": 944,
    "提升了": 945,
    "接下来": 946,
    "指挥官": 947,
    "指向性": 948,
    "拉比克": 949,
    "拉席克": 950,
    "拉娜娅": 951,
    "护甲和": 952,
    "技能6": 953,
    "技能1": 954,
    "找到了": 955,
    "托崔普": 956,
    "扔出一": 957,
    "所有的": 958,
    "所到之": 959,
    "战行者": 960,
    "我们的": 961,
    "成为了": 962,
    "意识到": 963,
    "恐怖利": 964,
    "德鲁伊": 965,
    "很快就": 966,
    "强大的": 967,
    "强力的": 968,
    "并造成": 969,
    "并获得": 970,
    "并没有": 971,
    "并施加": 972,
    "并持续": 973,
    "并受到": 974,
    "并不是": 975,
    "年轻的": 976,
    "带来的": 977,
    "带来了": 978,
    "帕格纳": 979,
    "巨牙海": 980,
    "巨大的": 981,
    "工程师": 982,
    "就这样": 983,
    "将造成": 984,
    "将获得": 985,
    "将自身": 986,
    "将自己": 987,
    "将目标": 988,
    "将敌人": 989,
    "将受到": 990,
    "将他们": 991,
    "射出一": 992,
    "对魔法": 993,
    "对附近": 994,
    "对目标": 995,
    "对敌人": 996,
    "对建筑": 997,
    "寒冬飞": 998,
    "安布里": 999,
    "宇宙的": 1000,
    "存在于": 1001,
    "如果你": 1002,
    "奈里夫": 1003,
    "奈克斯": 1004,
    "失去的": 1005,
    "天大圣": 1006,
    "大部分": 1007,
    "大多数": 1008,
    "复仇之": 1009,
    "地图上": 1010,
    "在那里": 1011,
    "在那些": 1012,
    "在这片": 1013,
    "在这个": 1014,
    "在目标": 1015,
    "在敌人": 1016,
    "在技能": 1017,
    "在战斗": 1018,
    "在战场": 1019,
    "在战争": 1020,
    "在他的": 1021,
    "在一个": 1022,
    "噬魂鬼": 1023,
    "唯一的": 1024,
    "哈斯卡": 1025,
    "和附近": 1026,
    "和护甲": 1027,
    "和她的": 1028,
    "和他的": 1029,
    "周围的": 1030,
    "向目标": 1031,
    "可怕的": 1032,
    "可以对": 1033,
    "可以在": 1034,
    "召唤一": 1035,
    "另一个": 1036,
    "古老的": 1037,
    "变成了": 1038,
    "受到的": 1039,
    "受到了": 1040,
    "发条技": 1041,
    "即使是": 1042,
    "卡洛克": 1043,
    "半人马": 1044,
    "区域内": 1045,
    "力量的": 1046,
    "到一个": 1047,
    "击中的": 1048,
    "出一道": 1049,
    "出一个": 1050,
    "减速和": 1051,
    "减缓其": 1052,
    "冥界亚": 1053,
    "军团的": 1054,
    "其他人": 1055,
    "其中的": 1056,
    "克林克": 1057,
    "充斥着": 1058,
    "修补匠": 1059,
    "使目标": 1060,
    "使他们": 1061,
    "伤害量": 1062,
    "伤害的": 1063,
    "伤害并": 1064,
    "伤害和": 1065,
    "传送门": 1066,
    "传送至": 1067,
    "传送到": 1068,
    "伟大的": 1069,
    "会获得": 1070,
    "会受到": 1071,
    "伐木机": 1072,
    "以英雄": 1073,
    "仙德尔": 1074,
    "他自己": 1075,
    "他开始": 1076,
    "他们的": 1077,
    "亚巴顿": 1078,
    "了所有": 1079,
    "了他的": 1080,
    "了一个": 1081,
    "乱之源": 1082,
    "也没有": 1083,
    "乌尔萨": 1084,
    "为基础": 1085,
    "世界的": 1086,
    "世界上": 1087,
    "不朽尸": 1088,
    "下来的": 1089,
    "上古巨": 1090,
    "一直在": 1091,
    "一开始": 1092,
    "ve_": 1093,
    "val": 1094,
    "ura": 1095,
    "tip": 1096,
    "tim": 1097,
    "ter": 1098,
    "spe": 1099,
    "per": 1100,
    "own": 1101,
    "ool": 1102,
    "on_": 1103,
    "nel": 1104,
    "mul": 1105,
    "mov": 1106,
    "min": 1107,
    "men": 1108,
    "max": 1109,
    "man": 1110,
    "mag": 1111,
    "it_": 1112,
    "ist": 1113,
    "ing": 1114,
    "ill": 1115,
    "ela": 1116,
    "eal": 1117,
    "d67": 1118,
    "cre": 1119,
    "cen": 1120,
    "ast": 1121,
    "arg": 1122,
    "anc": 1123,
    "all": 1124,
    "ack": 1125,
    "_st": 1126,
    "_re": 1127,
    "_li": 1128,
    "998": 1129,
    "龙的": 1130,
    "齿轮": 1131,
    "黑暗": 1132,
    "鲜血": 1133,
    "鲍什": 1134,
    "鱼人": 1135,
    "魔霭": 1136,
    "魔法": 1137,
    "魔导": 1138,
    "魔女": 1139,
    "魅惑": 1140,
    "鬼影": 1141,
    "高额": 1142,
    "高原": 1143,
    "骷髅": 1144,
    "骑士": 1145,
    "驱散": 1146,
    "马上": 1147,
    "食人": 1148,
    "飞霞": 1149,
    "飞行": 1150,
    "飞斧": 1151,
    "风暴": 1152,
    "额外": 1153,
    "领主": 1154,
    "预言": 1155,
    "预兆": 1156,
    "面对": 1157,
    "面前": 1158,
    "靠近": 1159,
    "非常": 1160,
    "露娜": 1161,
    "霜冻": 1162,
    "需要": 1163,
    "雷泽": 1164,
    "难以": 1165,
    "隐身": 1166,
    "隐藏": 1167,
    "隐秘": 1168,
    "隐形": 1169,
    "随着": 1170,
    "随机": 1171,
    "陷阱": 1172,
    "降低": 1173,
    "附近": 1174,
    "附带": 1175,
    "阿兹": 1176,
    "阻止": 1177,
    "阻挡": 1178,
    "阵亡": 1179,
    "阴影": 1180,
    "防御": 1181,
    "队友": 1182,
    "间隔": 1183,
    "间的": 1184,
    "闪避": 1185,
    "闪耀": 1186,
    "闪电": 1187,
    "闪烁": 1188,
    "长老": 1189,
    "长矛": 1190,
    "长的": 1191,
    "锯齿": 1192,
    "锯刃": 1193,
    "锁定": 1194,
    "钢背": 1195,
    "金钱": 1196,
    "野性": 1197,
    "野兽": 1198,
    "重要": 1199,
    "重新": 1200,
    "里面": 1201,
    "里的": 1202,
    "里瑟": 1203,
    "释放": 1204,
    "酷的": 1205,
    "酒馆": 1206,
    "酒仙": 1207,
    "都被": 1208,
    "都能": 1209,
    "都是": 1210,
    "都将": 1211,
    "都在": 1212,
    "都会": 1213,
    "部落": 1214,
    "部族": 1215,
    "部分": 1216,
    "邪恶": 1217,
    "邪影": 1218,
    "那里": 1219,
    "那些": 1220,
    "那么": 1221,
    "那个": 1222,
    "避免": 1223,
    "遭到": 1224,
    "遗忘": 1225,
    "遍野": 1226,
    "遇到": 1227,
    "造成": 1228,
    "速率": 1229,
    "速度": 1230,
    "通过": 1231,
    "逐渐": 1232,
    "选择": 1233,
    "逃跑": 1234,
    "逃离": 1235,
    "追踪": 1236,
    "追求": 1237,
    "追寻": 1238,
    "迷雾": 1239,
    "迷宫": 1240,
    "连接": 1241,
    "远程": 1242,
    "远离": 1243,
    "远的": 1244,
    "远古": 1245,
    "进行": 1246,
    "进入": 1247,
    "这种": 1248,
    "这片": 1249,
    "这次": 1250,
    "这样": 1251,
    "这是": 1252,
    "这些": 1253,
    "这个": 1254,
    "这一": 1255,
    "还能": 1256,
    "还有": 1257,
    "还是": 1258,
    "还将": 1259,
    "还会": 1260,
    "返回": 1261,
    "近战": 1262,
    "过程": 1263,
    "过的": 1264,
    "过去": 1265,
    "迅速": 1266,
    "达维": 1267,
    "达到": 1268,
    "辰星": 1269,
    "转身": 1270,
    "转而": 1271,
    "转移": 1272,
    "转化": 1273,
    "躯体": 1274,
    "身边": 1275,
    "身后": 1276,
    "身体": 1277,
    "身份": 1278,
    "身上": 1279,
    "踏入": 1280,
    "践踏": 1281,
    "跳跃": 1282,
    "路径": 1283,
    "距离": 1284,
    "越来": 1285,
    "超过": 1286,
    "起的": 1287,
    "赢得": 1288,
    "赐予": 1289,
    "赏金": 1290,
    "责任": 1291,
    "负面": 1292,
    "谜团": 1293,
    "诺崇": 1294,
    "试图": 1295,
    "诅咒": 1296,
    "证明": 1297,
    "设计": 1298,
    "许多": 1299,
    "记忆": 1300,
    "记得": 1301,
    "训练": 1302,
    "让他": 1303,
    "认为": 1304,
    "计划": 1305,
    "誓要": 1306,
    "触发": 1307,
    "解命": 1308,
    "觉得": 1309,
    "视野": 1310,
    "视着": 1311,
    "规模": 1312,
    "装置": 1313,
    "裂魂": 1314,
    "裂缝": 1315,
    "被动": 1316,
    "被他": 1317,
    "行走": 1318,
    "行者": 1319,
    "行动": 1320,
    "行为": 1321,
    "血魔": 1322,
    "血腥": 1323,
    "血肉": 1324,
    "血液": 1325,
    "融合": 1326,
    "蝮蛇": 1327,
    "蝙蝠": 1328,
    "蜘蛛": 1329,
    "蛛网": 1330,
    "虽然": 1331,
    "虚空": 1332,
    "虚无": 1333,
    "落的": 1334,
    "落地": 1335,
    "落在": 1336,
    "获得": 1337,
    "莱瑞": 1338,
    "莱恩": 1339,
    "莉莱": 1340,
    "莉娜": 1341,
    "药剂": 1342,
    "荣誉": 1343,
    "荆棘": 1344,
    "范围": 1345,
    "英雄": 1346,
    "若干": 1347,
    "苍白": 1348,
    "花树": 1349,
    "艾欧": 1350,
    "色的": 1351,
    "舰队": 1352,
    "致命": 1353,
    "自身": 1354,
    "自由": 1355,
    "自然": 1356,
    "自我": 1357,
    "自己": 1358,
    "自动": 1359,
    "腐蚀": 1360,
    "腐烂": 1361,
    "脱离": 1362,
    "脑海": 1363,
    "脉冲": 1364,
    "能量": 1365,
    "能让": 1366,
    "能够": 1367,
    "能力": 1368,
    "胜利": 1369,
    "背景": 1370,
    "背叛": 1371,
    "肉体": 1372,
    "肆虐": 1373,
    "聚集": 1374,
    "而是": 1375,
    "而他": 1376,
    "而且": 1377,
    "者的": 1378,
    "者们": 1379,
    "美杜": 1380,
    "罗斯": 1381,
    "缴械": 1382,
    "缠绕": 1383,
    "编织": 1384,
    "缓慢": 1385,
    "维萨": 1386,
    "维罗": 1387,
    "维持": 1388,
    "绳索": 1389,
    "继续": 1390,
    "继承": 1391,
    "统治": 1392,
    "绝望": 1393,
    "绝对": 1394,
    "给他": 1395,
    "给予": 1396,
    "结束": 1397,
    "经过": 1398,
    "经常": 1399,
    "经历": 1400,
    "终结": 1401,
    "终极": 1402,
    "终于": 1403,
    "组织": 1404,
    "纷纷": 1405,
    "纯粹": 1406,
    "精神": 1407,
    "精灵": 1408,
    "精心": 1409,
    "精华": 1410,
    "精准": 1411,
    "粉碎": 1412,
    "米波": 1413,
    "箭矢": 1414,
    "等级": 1415,
    "等待": 1416,
    "笼罩": 1417,
    "第一": 1418,
    "竞技": 1419,
    "立刻": 1420,
    "窃取": 1421,
    "穿过": 1422,
    "穿越": 1423,
    "空中": 1424,
    "移除": 1425,
    "移动": 1426,
    "称为": 1427,
    "秩序": 1428,
    "秘密": 1429,
    "秒后": 1430,
    "秒内": 1431,
    "种族": 1432,
    "种子": 1433,
    "离开": 1434,
    "禁锢": 1435,
    "祭司": 1436,
    "神谕": 1437,
    "神秘": 1438,
    "神智": 1439,
    "神圣": 1440,
    "神之": 1441,
    "祈求": 1442,
    "碰到": 1443,
    "碎片": 1444,
    "破碎": 1445,
    "破晓": 1446,
    "破坏": 1447,
    "研究": 1448,
    "矿工": 1449,
    "石的": 1450,
    "石头": 1451,
    "石像": 1452,
    "短暂": 1453,
    "知道": 1454,
    "知识": 1455,
    "知的": 1456,
    "知晓": 1457,
    "瞬间": 1458,
    "着他": 1459,
    "着一": 1460,
    "眩晕": 1461,
    "真正": 1462,
    "真实": 1463,
    "看着": 1464,
    "看到": 1465,
    "相比": 1466,
    "相当": 1467,
    "相信": 1468,
    "相互": 1469,
    "直线": 1470,
    "直接": 1471,
    "直到": 1472,
    "目睹": 1473,
    "目标": 1474,
    "盟友": 1475,
    "监牢": 1476,
    "的魔": 1477,
    "的花": 1478,
    "的神": 1479,
    "的火": 1480,
    "的深": 1481,
    "的暴": 1482,
    "的是": 1483,
    "的无": 1484,
    "的方": 1485,
    "的手": 1486,
    "的战": 1487,
    "的巨": 1488,
    "的山": 1489,
    "的小": 1490,
    "的对": 1491,
    "的天": 1492,
    "的大": 1493,
    "的地": 1494,
    "的圣": 1495,
    "的光": 1496,
    "的传": 1497,
    "的人": 1498,
    "的一": 1499,
    "瘟疫": 1500,
    "痛苦": 1501,
    "疲倦": 1502,
    "疯狂": 1503,
    "留下": 1504,
    "电荷": 1505,
    "由于": 1506,
    "生的": 1507,
    "生物": 1508,
    "生活": 1509,
    "生效": 1510,
    "生存": 1511,
    "生命": 1512,
    "甚至": 1513,
    "瑞斯": 1514,
    "琼英": 1515,
    "理解": 1516,
    "珍贵": 1517,
    "现实": 1518,
    "现在": 1519,
    "环绕": 1520,
    "玛西": 1521,
    "玛尔": 1522,
    "王的": 1523,
    "王庭": 1524,
    "王座": 1525,
    "王国": 1526,
    "猴孙": 1527,
    "猴子": 1528,
    "献给": 1529,
    "猛击": 1530,
    "猎手": 1531,
    "猎人": 1532,
    "狼人": 1533,
    "独自": 1534,
    "独立": 1535,
    "狡猾": 1536,
    "狙击": 1537,
    "狂风": 1538,
    "狂暴": 1539,
    "狂怒": 1540,
    "状态": 1541,
    "牺牲": 1542,
    "特蕾": 1543,
    "牵引": 1544,
    "物质": 1545,
    "物的": 1546,
    "物理": 1547,
    "物品": 1548,
    "父亲": 1549,
    "爬虫": 1550,
    "爆炸": 1551,
    "爆发": 1552,
    "燃烧": 1553,
    "熔炉": 1554,
    "熊灵": 1555,
    "然而": 1556,
    "然的": 1557,
    "然后": 1558,
    "焦油": 1559,
    "烧灼": 1560,
    "烈酒": 1561,
    "烈的": 1562,
    "烈焰": 1563,
    "烈火": 1564,
    "炼金": 1565,
    "点燃": 1566,
    "炸弹": 1567,
    "炎绝": 1568,
    "灼热": 1569,
    "灵魂": 1570,
    "灵能": 1571,
    "灵体": 1572,
    "灰烬": 1573,
    "火焰": 1574,
    "灌注": 1575,
    "激活": 1576,
    "激怒": 1577,
    "潮汐": 1578,
    "漫游": 1579,
    "满足": 1580,
    "满是": 1581,
    "满了": 1582,
    "滚滚": 1583,
    "滚动": 1584,
    "源泉": 1585,
    "溅射": 1586,
    "游侠": 1587,
    "渴望": 1588,
    "混沌": 1589,
    "深渊": 1590,
    "深海": 1591,
    "深处": 1592,
    "消耗": 1593,
    "消灭": 1594,
    "消失": 1595,
    "海洋": 1596,
    "海妖": 1597,
    "流放": 1598,
    "流传": 1599,
    "洞穴": 1600,
    "泽特": 1601,
    "注意": 1602,
    "注入": 1603,
    "波浪": 1604,
    "法术": 1605,
    "法师": 1606,
    "法则": 1607,
    "沿途": 1608,
    "治疗": 1609,
    "没有": 1610,
    "没人": 1611,
    "沙王": 1612,
    "沙漠": 1613,
    "沉默": 1614,
    "沉睡": 1615,
    "沉没": 1616,
    "汲取": 1617,
    "永远": 1618,
    "永恒": 1619,
    "永久": 1620,
    "永世": 1621,
    "水晶": 1622,
    "毫无": 1623,
    "比克": 1624,
    "比例": 1625,
    "毒素": 1626,
    "毒液": 1627,
    "毒性": 1628,
    "每秒": 1629,
    "每次": 1630,
    "每当": 1631,
    "每个": 1632,
    "每一": 1633,
    "毁灭": 1634,
    "残骸": 1635,
    "残破": 1636,
    "残留": 1637,
    "残焰": 1638,
    "残岩": 1639,
    "殁境": 1640,
    "死者": 1641,
    "死去": 1642,
    "死亡": 1643,
    "武器": 1644,
    "正是": 1645,
    "正如": 1646,
    "次数": 1647,
    "概率": 1648,
    "棵树": 1649,
    "森海": 1650,
    "森林": 1651,
    "格纳": 1652,
    "格挡": 1653,
    "根本": 1654,
    "根据": 1655,
    "树精": 1656,
    "树木": 1657,
    "标记": 1658,
    "枷锁": 1659,
    "林克": 1660,
    "杰奇": 1661,
    "来说": 1662,
    "来自": 1663,
    "来的": 1664,
    "束缚": 1665,
    "村庄": 1666,
    "杀死": 1667,
    "杀戮": 1668,
    "机器": 1669,
    "术士": 1670,
    "本身": 1671,
    "本体": 1672,
    "末日": 1673,
    "期间": 1674,
    "有限": 1675,
    "有着": 1676,
    "有的": 1677,
    "有时": 1678,
    "有所": 1679,
    "有人": 1680,
    "有些": 1681,
    "有了": 1682,
    "有一": 1683,
    "月之": 1684,
    "最高": 1685,
    "最近": 1686,
    "最终": 1687,
    "最小": 1688,
    "最大": 1689,
    "最多": 1690,
    "最后": 1691,
    "最为": 1692,
    "曾经": 1693,
    "更多": 1694,
    "更加": 1695,
    "更为": 1696,
    "暗黑": 1697,
    "暗影": 1698,
    "暂时": 1699,
    "智慧": 1700,
    "智力": 1701,
    "普通": 1702,
    "是在": 1703,
    "明白": 1704,
    "昆卡": 1705,
    "时间": 1706,
    "时刻": 1707,
    "时光": 1708,
    "时候": 1709,
    "时会": 1710,
    "早已": 1711,
    "无论": 1712,
    "无视": 1713,
    "无法": 1714,
    "无比": 1715,
    "无数": 1716,
    "无敌": 1717,
    "无尽": 1718,
    "无人": 1719,
    "族群": 1720,
    "族的": 1721,
    "族人": 1722,
    "施法": 1723,
    "施放": 1724,
    "施展": 1725,
    "施加": 1726,
    "方的": 1727,
    "方向": 1728,
    "新的": 1729,
    "新生": 1730,
    "斯温": 1731,
    "斧王": 1732,
    "文明": 1733,
    "整个": 1734,
    "数量": 1735,
    "数值": 1736,
    "数个": 1737,
    "数不": 1738,
    "教皇": 1739,
    "教团": 1740,
    "敏捷": 1741,
    "敌方": 1742,
    "敌军": 1743,
    "敌人": 1744,
    "效果": 1745,
    "故事": 1746,
    "放逐": 1747,
    "放弃": 1748,
    "放出": 1749,
    "攻击": 1750,
    "改造": 1751,
    "改变": 1752,
    "收集": 1753,
    "操控": 1754,
    "撼地": 1755,
    "撕裂": 1756,
    "摧毁": 1757,
    "搜寻": 1758,
    "提高": 1759,
    "提升": 1760,
    "提供": 1761,
    "描述": 1762,
    "控制": 1763,
    "接近": 1764,
    "接受": 1765,
    "接下": 1766,
    "掘地": 1767,
    "掌握": 1768,
    "掌控": 1769,
    "授予": 1770,
    "据说": 1771,
    "损毁": 1772,
    "损失": 1773,
    "挽歌": 1774,
    "挥舞": 1775,
    "挣扎": 1776,
    "挑战": 1777,
    "指挥": 1778,
    "指定": 1779,
    "指向": 1780,
    "持续": 1781,
    "拥有": 1782,
    "拒绝": 1783,
    "拉达": 1784,
    "拉席": 1785,
    "拉娜": 1786,
    "拉克": 1787,
    "护盾": 1788,
    "护甲": 1789,
    "抛弃": 1790,
    "抚养": 1791,
    "折磨": 1792,
    "抗性": 1793,
    "投掷": 1794,
    "投入": 1795,
    "技艺": 1796,
    "技能": 1797,
    "承受": 1798,
    "找到": 1799,
    "扭曲": 1800,
    "托崔": 1801,
    "打破": 1802,
    "打断": 1803,
    "打开": 1804,
    "打击": 1805,
    "才能": 1806,
    "才会": 1807,
    "所有": 1808,
    "所在": 1809,
    "所以": 1810,
    "房屋": 1811,
    "戴泽": 1812,
    "战锤": 1813,
    "战斗": 1814,
    "战将": 1815,
    "战士": 1816,
    "战场": 1817,
    "战争": 1818,
    "或者": 1819,
    "或是": 1820,
    "我们": 1821,
    "成熟": 1822,
    "成功": 1823,
    "成了": 1824,
    "成为": 1825,
    "慢慢": 1826,
    "愤怒": 1827,
    "感觉": 1828,
    "感染": 1829,
    "感到": 1830,
    "意识": 1831,
    "意的": 1832,
    "意志": 1833,
    "意义": 1834,
    "愈发": 1835,
    "想要": 1836,
    "想法": 1837,
    "情况": 1838,
    "悬崖": 1839,
    "悉拉": 1840,
    "恶魔": 1841,
    "恢复": 1842,
    "恐惧": 1843,
    "恐怖": 1844,
    "恐吓": 1845,
    "总是": 1846,
    "性的": 1847,
    "思议": 1848,
    "思想": 1849,
    "忽悠": 1850,
    "快速": 1851,
    "忠诚": 1852,
    "必须": 1853,
    "心的": 1854,
    "心智": 1855,
    "德鲁": 1856,
    "德尔": 1857,
    "微的": 1858,
    "得到": 1859,
    "得以": 1860,
    "很快": 1861,
    "很多": 1862,
    "彻底": 1863,
    "影魔": 1864,
    "影响": 1865,
    "形成": 1866,
    "形态": 1867,
    "当时": 1868,
    "当前": 1869,
    "当他": 1870,
    "强大": 1871,
    "强化": 1872,
    "弹跳": 1873,
    "引起": 1874,
    "引爆": 1875,
    "弓箭": 1876,
    "异的": 1877,
    "开始": 1878,
    "开启": 1879,
    "建筑": 1880,
    "延迟": 1881,
    "废墟": 1882,
    "幽魂": 1883,
    "幽鬼": 1884,
    "幽灵": 1885,
    "幽冥": 1886,
    "幼虫": 1887,
    "幻象": 1888,
    "幻影": 1889,
    "幸运": 1890,
    "幸存": 1891,
    "并未": 1892,
    "并对": 1893,
    "并在": 1894,
    "并使": 1895,
    "并且": 1896,
    "并不": 1897,
    "年轻": 1898,
    "年的": 1899,
    "干扰": 1900,
    "帮助": 1901,
    "带着": 1902,
    "带来": 1903,
    "带有": 1904,
    "带去": 1905,
    "帕吉": 1906,
    "帕克": 1907,
    "希望": 1908,
    "师的": 1909,
    "师们": 1910,
    "布里": 1911,
    "已经": 1912,
    "巫师": 1913,
    "巫妖": 1914,
    "巫医": 1915,
    "巨魔": 1916,
    "巨石": 1917,
    "巨牙": 1918,
    "工程": 1919,
    "工坊": 1920,
    "工作": 1921,
    "岩石": 1922,
    "岛屿": 1923,
    "山脉": 1924,
    "属性": 1925,
    "属于": 1926,
    "居住": 1927,
    "尽管": 1928,
    "就能": 1929,
    "就算": 1930,
    "就是": 1931,
    "就在": 1932,
    "就像": 1933,
    "就会": 1934,
    "尖叫": 1935,
    "尖刺": 1936,
    "尔萨": 1937,
    "小小": 1938,
    "将被": 1939,
    "将它": 1940,
    "将在": 1941,
    "将其": 1942,
    "将会": 1943,
    "将他": 1944,
    "射出": 1945,
    "导致": 1946,
    "导弹": 1947,
    "寻求": 1948,
    "寻找": 1949,
    "寺庙": 1950,
    "对其": 1951,
    "对他": 1952,
    "对于": 1953,
    "寥寥": 1954,
    "寒霜": 1955,
    "寒冰": 1956,
    "寒冬": 1957,
    "家的": 1958,
    "家族": 1959,
    "家伙": 1960,
    "室女": 1961,
    "实的": 1962,
    "定的": 1963,
    "宙斯": 1964,
    "完美": 1965,
    "完成": 1966,
    "完全": 1967,
    "安全": 1968,
    "守望": 1969,
    "守护": 1970,
    "守夜": 1971,
    "守卫": 1972,
    "宇宙": 1973,
    "它的": 1974,
    "它们": 1975,
    "孽主": 1976,
    "孩子": 1977,
    "学院": 1978,
    "学习": 1979,
    "存在": 1980,
    "子的": 1981,
    "娜迦": 1982,
    "威胁": 1983,
    "威力": 1984,
    "如此": 1985,
    "如果": 1986,
    "如何": 1987,
    "如今": 1988,
    "好奇": 1989,
    "她那": 1990,
    "她的": 1991,
    "她在": 1992,
    "她们": 1993,
    "女神": 1994,
    "奥术": 1995,
    "契约": 1996,
    "奈里": 1997,
    "奇怪": 1998,
    "头脑": 1999,
    "失败": 2000,
    "失去": 2001,
    "太阳": 2002,
    "太虚": 2003,
    "天赋": 2004,
    "天穹": 2005,
    "天生": 2006,
    "天怒": 2007,
    "天大": 2008,
    "大铭": 2009,
    "大量": 2010,
    "大的": 2011,
    "大幅": 2012,
    "大帝": 2013,
    "大地": 2014,
    "大军": 2015,
    "夜魔": 2016,
    "夜晚": 2017,
    "多数": 2018,
    "多年": 2019,
    "多个": 2020,
    "外的": 2021,
    "外界": 2022,
    "外壳": 2023,
    "外出": 2024,
    "复制": 2025,
    "复仇": 2026,
    "处的": 2027,
    "处于": 2028,
    "声音": 2029,
    "士兵": 2030,
    "增强": 2031,
    "增加": 2032,
    "墓碑": 2033,
    "堂城": 2034,
    "基础": 2035,
    "基于": 2036,
    "城市": 2037,
    "坚信": 2038,
    "地面": 2039,
    "地雷": 2040,
    "地的": 2041,
    "地狱": 2042,
    "地点": 2043,
    "地图": 2044,
    "地下": 2045,
    "地上": 2046,
    "在那": 2047,
    "在这": 2048,
    "在被": 2049,
    "在此": 2050,
    "在她": 2051,
    "在地": 2052,
    "在原": 2053,
    "在其": 2054,
    "在他": 2055,
    "在了": 2056,
    "在一": 2057,
    "圣池": 2058,
    "圣堂": 2059,
    "土地": 2060,
    "国的": 2061,
    "国王": 2062,
    "固定": 2063,
    "围绕": 2064,
    "困住": 2065,
    "因此": 2066,
    "因为": 2067,
    "回归": 2068,
    "回复": 2069,
    "回到": 2070,
    "四处": 2071,
    "噬魂": 2072,
    "噩梦": 2073,
    "喜欢": 2074,
    "唯一": 2075,
    "哈斯": 2076,
    "咒语": 2077,
    "和平": 2078,
    "和他": 2079,
    "咆哮": 2080,
    "命运": 2081,
    "呼唤": 2082,
    "周围": 2083,
    "告诉": 2084,
    "吸血": 2085,
    "吸收": 2086,
    "吸取": 2087,
    "启动": 2088,
    "吞噬": 2089,
    "向她": 2090,
    "向前": 2091,
    "吐息": 2092,
    "后的": 2093,
    "后将": 2094,
    "后会": 2095,
    "名字": 2096,
    "同胞": 2097,
    "同类": 2098,
    "同样": 2099,
    "同时": 2100,
    "同伴": 2101,
    "同一": 2102,
    "各种": 2103,
    "司夜": 2104,
    "可见": 2105,
    "可能": 2106,
    "可怕": 2107,
    "可以": 2108,
    "召唤": 2109,
    "只要": 2110,
    "只能": 2111,
    "只有": 2112,
    "只是": 2113,
    "另外": 2114,
    "另一": 2115,
    "古老": 2116,
    "叠加": 2117,
    "变身": 2118,
    "变成": 2119,
    "变得": 2120,
    "变化": 2121,
    "变体": 2122,
    "变为": 2123,
    "受到": 2124,
    "取决": 2125,
    "发生": 2126,
    "发现": 2127,
    "发条": 2128,
    "发射": 2129,
    "发动": 2130,
    "发出": 2131,
    "反复": 2132,
    "双翼": 2133,
    "双眼": 2134,
    "双方": 2135,
    "友方": 2136,
    "友军": 2137,
    "原本": 2138,
    "原始": 2139,
    "原初": 2140,
    "历史": 2141,
    "即将": 2142,
    "即使": 2143,
    "危险": 2144,
    "卫士": 2145,
    "卡洛": 2146,
    "卡尔": 2147,
    "南海": 2148,
    "单位": 2149,
    "卓尔": 2150,
    "半人": 2151,
    "千万": 2152,
    "十分": 2153,
    "区域": 2154,
    "化的": 2155,
    "匕首": 2156,
    "包括": 2157,
    "包围": 2158,
    "勇气": 2159,
    "动物": 2160,
    "加成": 2161,
    "加入": 2162,
    "加上": 2163,
    "办法": 2164,
    "力量": 2165,
    "力的": 2166,
    "力丸": 2167,
    "剧毒": 2168,
    "剑士": 2169,
    "前来": 2170,
    "前方": 2171,
    "削弱": 2172,
    "刺针": 2173,
    "刺客": 2174,
    "刷新": 2175,
    "制造": 2176,
    "到达": 2177,
    "到了": 2178,
    "到之": 2179,
    "利的": 2180,
    "利用": 2181,
    "初始": 2182,
    "创造": 2183,
    "创世": 2184,
    "刚铎": 2185,
    "则是": 2186,
    "分裂": 2187,
    "分比": 2188,
    "击退": 2189,
    "击杀": 2190,
    "击中": 2191,
    "出身": 2192,
    "出的": 2193,
    "出生": 2194,
    "出现": 2195,
    "出于": 2196,
    "出了": 2197,
    "出一": 2198,
    "凤凰": 2199,
    "凡人": 2200,
    "几率": 2201,
    "几乎": 2202,
    "几个": 2203,
    "减速": 2204,
    "减缓": 2205,
    "减少": 2206,
    "准备": 2207,
    "冻结": 2208,
    "冷却": 2209,
    "决斗": 2210,
    "决定": 2211,
    "冲突": 2212,
    "冲撞": 2213,
    "冲击": 2214,
    "冰霜": 2215,
    "冰球": 2216,
    "冰爆": 2217,
    "冰封": 2218,
    "冥魂": 2219,
    "冥界": 2220,
    "冥想": 2221,
    "军队": 2222,
    "军团": 2223,
    "冒险": 2224,
    "再次": 2225,
    "内的": 2226,
    "内心": 2227,
    "兽王": 2228,
    "具有": 2229,
    "其它": 2230,
    "其他": 2231,
    "其中": 2232,
    "关在": 2233,
    "关于": 2234,
    "公主": 2235,
    "全部": 2236,
    "全能": 2237,
    "入侵": 2238,
    "入了": 2239,
    "免疫": 2240,
    "克斯": 2241,
    "光明": 2242,
    "光之": 2243,
    "先祖": 2244,
    "先知": 2245,
    "先兆": 2246,
    "充满": 2247,
    "充斥": 2248,
    "兄弟": 2249,
    "元素": 2250,
    "允许": 2251,
    "傀儡": 2252,
    "偷取": 2253,
    "停留": 2254,
    "停止": 2255,
    "做出": 2256,
    "值得": 2257,
    "修补": 2258,
    "信仰": 2259,
    "保护": 2260,
    "便车": 2261,
    "侵略": 2262,
    "依靠": 2263,
    "依然": 2264,
    "侍奉": 2265,
    "使者": 2266,
    "使用": 2267,
    "使其": 2268,
    "使他": 2269,
    "佣兽": 2270,
    "你的": 2271,
    "作用": 2272,
    "作为": 2273,
    "体的": 2274,
    "体内": 2275,
    "住民": 2276,
    "低语": 2277,
    "位面": 2278,
    "位置": 2279,
    "但是": 2280,
    "似乎": 2281,
    "伤害": 2282,
    "传送": 2283,
    "传说": 2284,
    "传统": 2285,
    "传来": 2286,
    "会被": 2287,
    "会对": 2288,
    "会在": 2289,
    "伙伴": 2290,
    "伐木": 2291,
    "任意": 2292,
    "任务": 2293,
    "任何": 2294,
    "们的": 2295,
    "仪式": 2296,
    "以及": 2297,
    "令人": 2298,
    "代的": 2299,
    "代价": 2300,
    "仙女": 2301,
    "他那": 2302,
    "他还": 2303,
    "他被": 2304,
    "他能": 2305,
    "他的": 2306,
    "他用": 2307,
    "他是": 2308,
    "他就": 2309,
    "他将": 2310,
    "他对": 2311,
    "他在": 2312,
    "他会": 2313,
    "他们": 2314,
    "他从": 2315,
    "他也": 2316,
    "他为": 2317,
    "从中": 2318,
    "从不": 2319,
    "仍然": 2320,
    "仅是": 2321,
    "什么": 2322,
    "人都": 2323,
    "人的": 2324,
    "产生": 2325,
    "亚巴": 2326,
    "云雾": 2327,
    "于是": 2328,
    "事情": 2329,
    "事实": 2330,
    "了他": 2331,
    "了一": 2332,
    "乱之": 2333,
    "也许": 2334,
    "也被": 2335,
    "也是": 2336,
    "也将": 2337,
    "也会": 2338,
    "也不": 2339,
    "之间": 2340,
    "之纱": 2341,
    "之神": 2342,
    "之灵": 2343,
    "之境": 2344,
    "之力": 2345,
    "之前": 2346,
    "之光": 2347,
    "之一": 2348,
    "主要": 2349,
    "主宰": 2350,
    "主动": 2351,
    "为他": 2352,
    "为了": 2353,
    "中被": 2354,
    "中的": 2355,
    "中最": 2356,
    "两人": 2357,
    "两个": 2358,
    "丝汀": 2359,
    "东西": 2360,
    "丛林": 2361,
    "世间": 2362,
    "世界": 2363,
    "世人": 2364,
    "专注": 2365,
    "与其": 2366,
    "与他": 2367,
    "不顾": 2368,
    "不过": 2369,
    "不论": 2370,
    "不见": 2371,
    "不能": 2372,
    "不稳": 2373,
    "不知": 2374,
    "不朽": 2375,
    "不是": 2376,
    "不断": 2377,
    "不得": 2378,
    "不可": 2379,
    "不受": 2380,
    "不再": 2381,
    "不停": 2382,
    "不会": 2383,
    "不仅": 2384,
    "下的": 2385,
    "上的": 2386,
    "上古": 2387,
    "上了": 2388,
    "一颗": 2389,
    "一道": 2390,
    "一路": 2391,
    "一起": 2392,
    "一般": 2393,
    "一股": 2394,
    "一种": 2395,
    "一直": 2396,
    "一片": 2397,
    "一点": 2398,
    "一段": 2399,
    "一步": 2400,
    "一次": 2401,
    "一样": 2402,
    "一条": 2403,
    "一旦": 2404,
    "一座": 2405,
    "一定": 2406,
    "一头": 2407,
    "一块": 2408,
    "一团": 2409,
    "一名": 2410,
    "一只": 2411,
    "一半": 2412,
    "一切": 2413,
    "一位": 2414,
    "一些": 2415,
    "一个": 2416,
    "y_": 2417,
    "us": 2418,
    "un": 2419,
    "ul": 2420,
    "ty": 2421,
    "ti": 2422,
    "t_": 2423,
    "st": 2424,
    "sp": 2425,
    "sl": 2426,
    "si": 2427,
    "sh": 2428,
    "se": 2429,
    "ro": 2430,
    "re": 2431,
    "ra": 2432,
    "po": 2433,
    "pe": 2434,
    "pc": 2435,
    "ow": 2436,
    "or": 2437,
    "on": 2438,
    "ol": 2439,
    "ng": 2440,
    "mo": 2441,
    "mi": 2442,
    "ma": 2443,
    "li": 2444,
    "is": 2445,
    "in": 2446,
    "il": 2447,
    "gh": 2448,
    "ff": 2449,
    "fe": 2450,
    "et": 2451,
    "er": 2452,
    "ep": 2453,
    "en": 2454,
    "el": 2455,
    "ed": 2456,
    "ea": 2457,
    "e_": 2458,
    "e6": 2459,
    "du": 2460,
    "di": 2461,
    "d_": 2462,
    "co": 2463,
    "ck": 2464,
    "ch": 2465,
    "bu": 2466,
    "at": 2467,
    "ar": 2468,
    "an": 2469,
    "al": 2470,
    "ac": 2471,
    "ab": 2472,
    "_t": 2473,
    "_d": 2474,
    "98": 2475,
    "67": 2476,
    "00": 2477,
    "？": 2478,
    "；": 2479,
    "：": 2480,
    "，": 2481,
    "）": 2482,
    "（": 2483,
    "！": 2484,
    "龙": 2485,
    "龄": 2486,
    "齿": 2487,
    "齐": 2488,
    "鼻": 2489,
    "鼓": 2490,
    "黠": 2491,
    "默": 2492,
    "黑": 2493,
    "黏": 2494,
    "黎": 2495,
    "黄": 2496,
    "麾": 2497,
    "麻": 2498,
    "麦": 2499,
    "鹿": 2500,
    "鹰": 2501,
    "鸿": 2502,
    "鸥": 2503,
    "鸣": 2504,
    "鸟": 2505,
    "鳞": 2506,
    "鳗": 2507,
    "鲜": 2508,
    "鲍": 2509,
    "鲁": 2510,
    "鱼": 2511,
    "魔": 2512,
    "魇": 2513,
    "魅": 2514,
    "魄": 2515,
    "魂": 2516,
    "魁": 2517,
    "鬼": 2518,
    "髯": 2519,
    "高": 2520,
    "髅": 2521,
    "骸": 2522,
    "骷": 2523,
    "骨": 2524,
    "骤": 2525,
    "骚": 2526,
    "骗": 2527,
    "骑": 2528,
    "验": 2529,
    "骇": 2530,
    "骄": 2531,
    "骂": 2532,
    "驾": 2533,
    "驶": 2534,
    "驳": 2535,
    "驱": 2536,
    "驯": 2537,
    "马": 2538,
    "首": 2539,
    "馈": 2540,
    "馆": 2541,
    "馁": 2542,
    "饿": 2543,
    "饼": 2544,
    "饶": 2545,
    "饲": 2546,
    "饱": 2547,
    "饮": 2548,
    "饭": 2549,
    "饥": 2550,
    "饕": 2551,
    "餮": 2552,
    "餐": 2553,
    "食": 2554,
    "飞": 2555,
    "飘": 2556,
    "飓": 2557,
    "风": 2558,
    "颤": 2559,
    "颠": 2560,
    "额": 2561,
    "颜": 2562,
    "颚": 2563,
    "颗": 2564,
    "颖": 2565,
    "频": 2566,
    "颊": 2567,
    "颈": 2568,
    "颇": 2569,
    "领": 2570,
    "颅": 2571,
    "预": 2572,
    "顿": 2573,
    "顾": 2574,
    "顽": 2575,
    "须": 2576,
    "顺": 2577,
    "项": 2578,
    "顶": 2579,
    "音": 2580,
    "韧": 2581,
    "鞭": 2582,
    "鞋": 2583,
    "革": 2584,
    "面": 2585,
    "靡": 2586,
    "靠": 2587,
    "非": 2588,
    "静": 2589,
    "青": 2590,
    "霹": 2591,
    "霸": 2592,
    "露": 2593,
    "霰": 2594,
    "霭": 2595,
    "霞": 2596,
    "霜": 2597,
    "霎": 2598,
    "霍": 2599,
    "霉": 2600,
    "震": 2601,
    "霆": 2602,
    "需": 2603,
    "雾": 2604,
    "雷": 2605,
    "零": 2606,
    "雳": 2607,
    "雪": 2608,
    "雨": 2609,
    "雕": 2610,
    "集": 2611,
    "雅": 2612,
    "雄": 2613,
    "难": 2614,
    "隽": 2615,
    "隼": 2616,
    "隶": 2617,
    "隧": 2618,
    "障": 2619,
    "隙": 2620,
    "隔": 2621,
    "隐": 2622,
    "随": 2623,
    "隆": 2624,
    "陷": 2625,
    "陵": 2626,
    "陪": 2627,
    "险": 2628,
    "陨": 2629,
    "除": 2630,
    "院": 2631,
    "限": 2632,
    "降": 2633,
    "陌": 2634,
    "陋": 2635,
    "陈": 2636,
    "陆": 2637,
    "际": 2638,
    "附": 2639,
    "阿": 2640,
    "阻": 2641,
    "阶": 2642,
    "阵": 2643,
    "阴": 2644,
    "阳": 2645,
    "防": 2646,
    "阱": 2647,
    "队": 2648,
    "阔": 2649,
    "阐": 2650,
    "阎": 2651,
    "阉": 2652,
    "闻": 2653,
    "间": 2654,
    "闲": 2655,
    "闯": 2656,
    "问": 2657,
    "闭": 2658,
    "闪": 2659,
    "门": 2660,
    "长": 2661,
    "镶": 2662,
    "镰": 2663,
    "镣": 2664,
    "镜": 2665,
    "镖": 2666,
    "镇": 2667,
    "锻": 2668,
    "锯": 2669,
    "键": 2670,
    "锥": 2671,
    "锤": 2672,
    "锢": 2673,
    "锡": 2674,
    "锚": 2675,
    "错": 2676,
    "锐": 2677,
    "锋": 2678,
    "锈": 2679,
    "锃": 2680,
    "锁": 2681,
    "链": 2682,
    "铺": 2683,
    "铸": 2684,
    "银": 2685,
    "铭": 2686,
    "铠": 2687,
    "铜": 2688,
    "铐": 2689,
    "铎": 2690,
    "铅": 2691,
    "铁": 2692,
    "钻": 2693,
    "钴": 2694,
    "钱": 2695,
    "钮": 2696,
    "钩": 2697,
    "钢": 2698,
    "钟": 2699,
    "钉": 2700,
    "针": 2701,
    "釜": 2702,
    "金": 2703,
    "量": 2704,
    "野": 2705,
    "重": 2706,
    "里": 2707,
    "释": 2708,
    "采": 2709,
    "醺": 2710,
    "醒": 2711,
    "醉": 2712,
    "酿": 2713,
    "酸": 2714,
    "酷": 2715,
    "酝": 2716,
    "酒": 2717,
    "配": 2718,
    "酊": 2719,
    "鄙": 2720,
    "都": 2721,
    "部": 2722,
    "邻": 2723,
    "邪": 2724,
    "那": 2725,
    "邋": 2726,
    "避": 2727,
    "遵": 2728,
    "遴": 2729,
    "遮": 2730,
    "遭": 2731,
    "遥": 2732,
    "遣": 2733,
    "遢": 2734,
    "遗": 2735,
    "道": 2736,
    "遐": 2737,
    "遏": 2738,
    "遍": 2739,
    "遇": 2740,
    "遁": 2741,
    "逼": 2742,
    "逻": 2743,
    "逸": 2744,
    "造": 2745,
    "速": 2746,
    "逝": 2747,
    "通": 2748,
    "逗": 2749,
    "途": 2750,
    "递": 2751,
    "逐": 2752,
    "透": 2753,
    "选": 2754,
    "逆": 2755,
    "逃": 2756,
    "适": 2757,
    "送": 2758,
    "退": 2759,
    "追": 2760,
    "迹": 2761,
    "迸": 2762,
    "迷": 2763,
    "述": 2764,
    "迫": 2765,
    "迪": 2766,
    "迩": 2767,
    "迦": 2768,
    "迟": 2769,
    "连": 2770,
    "违": 2771,
    "远": 2772,
    "进": 2773,
    "这": 2774,
    "还": 2775,
    "返": 2776,
    "近": 2777,
    "运": 2778,
    "迎": 2779,
    "迈": 2780,
    "过": 2781,
    "迅": 2782,
    "迄": 2783,
    "迁": 2784,
    "达": 2785,
    "边": 2786,
    "辱": 2787,
    "辰": 2788,
    "辩": 2789,
    "辣": 2790,
    "辟": 2791,
    "辞": 2792,
    "辜": 2793,
    "辛": 2794,
    "输": 2795,
    "辑": 2796,
    "辉": 2797,
    "辈": 2798,
    "辆": 2799,
    "较": 2800,
    "载": 2801,
    "轻": 2802,
    "轶": 2803,
    "轴": 2804,
    "轰": 2805,
    "轮": 2806,
    "转": 2807,
    "轨": 2808,
    "车": 2809,
    "躲": 2810,
    "躯": 2811,
    "身": 2812,
    "躁": 2813,
    "蹲": 2814,
    "蹒": 2815,
    "蹈": 2816,
    "蹄": 2817,
    "踪": 2818,
    "踩": 2819,
    "踢": 2820,
    "踏": 2821,
    "践": 2822,
    "跳": 2823,
    "路": 2824,
    "跪": 2825,
    "跨": 2826,
    "跟": 2827,
    "距": 2828,
    "跚": 2829,
    "跑": 2830,
    "跋": 2831,
    "跃": 2832,
    "足": 2833,
    "趣": 2834,
    "趋": 2835,
    "越": 2836,
    "超": 2837,
    "趁": 2838,
    "起": 2839,
    "赶": 2840,
    "赴": 2841,
    "走": 2842,
    "赦": 2843,
    "赤": 2844,
    "赢": 2845,
    "赛": 2846,
    "赚": 2847,
    "赖": 2848,
    "赐": 2849,
    "赏": 2850,
    "赎": 2851,
    "赌": 2852,
    "赋": 2853,
    "资": 2854,
    "贼": 2855,
    "费": 2856,
    "贵": 2857,
    "贴": 2858,
    "贫": 2859,
    "贪": 2860,
    "贩": 2861,
    "质": 2862,
    "账": 2863,
    "败": 2864,
    "贤": 2865,
    "责": 2866,
    "财": 2867,
    "贡": 2868,
    "负": 2869,
    "贝": 2870,
    "貌": 2871,
    "豺": 2872,
    "豫": 2873,
    "豪": 2874,
    "豢": 2875,
    "象": 2876,
    "谷": 2877,
    "谴": 2878,
    "谱": 2879,
    "谬": 2880,
    "谨": 2881,
    "谣": 2882,
    "谜": 2883,
    "谕": 2884,
    "谓": 2885,
    "谐": 2886,
    "谍": 2887,
    "谋": 2888,
    "谊": 2889,
    "谈": 2890,
    "谅": 2891,
    "谄": 2892,
    "调": 2893,
    "谁": 2894,
    "课": 2895,
    "读": 2896,
    "诺": 2897,
    "诸": 2898,
    "请": 2899,
    "说": 2900,
    "诱": 2901,
    "误": 2902,
    "语": 2903,
    "详": 2904,
    "该": 2905,
    "询": 2906,
    "诡": 2907,
    "诞": 2908,
    "话": 2909,
    "诚": 2910,
    "诗": 2911,
    "试": 2912,
    "词": 2913,
    "诋": 2914,
    "诉": 2915,
    "诈": 2916,
    "识": 2917,
    "诅": 2918,
    "评": 2919,
    "证": 2920,
    "访": 2921,
    "设": 2922,
    "讽": 2923,
    "论": 2924,
    "许": 2925,
    "讶": 2926,
    "讲": 2927,
    "记": 2928,
    "讯": 2929,
    "议": 2930,
    "训": 2931,
    "讪": 2932,
    "让": 2933,
    "认": 2934,
    "计": 2935,
    "警": 2936,
    "誓": 2937,
    "誉": 2938,
    "言": 2939,
    "触": 2940,
    "解": 2941,
    "角": 2942,
    "觐": 2943,
    "觎": 2944,
    "觊": 2945,
    "觉": 2946,
    "视": 2947,
    "觅": 2948,
    "规": 2949,
    "观": 2950,
    "见": 2951,
    "覆": 2952,
    "要": 2953,
    "西": 2954,
    "襁": 2955,
    "褴": 2956,
    "褛": 2957,
    "褓": 2958,
    "裹": 2959,
    "裔": 2960,
    "装": 2961,
    "裂": 2962,
    "裁": 2963,
    "袭": 2964,
    "被": 2965,
    "袤": 2966,
    "袖": 2967,
    "袋": 2968,
    "衷": 2969,
    "衰": 2970,
    "衫": 2971,
    "表": 2972,
    "补": 2973,
    "衣": 2974,
    "衡": 2975,
    "衔": 2976,
    "衍": 2977,
    "行": 2978,
    "血": 2979,
    "蠢": 2980,
    "螺": 2981,
    "融": 2982,
    "蝮": 2983,
    "蝠": 2984,
    "蝙": 2985,
    "蜿": 2986,
    "蜷": 2987,
    "蜴": 2988,
    "蜥": 2989,
    "蜜": 2990,
    "蜘": 2991,
    "蜕": 2992,
    "蜂": 2993,
    "蛰": 2994,
    "蛮": 2995,
    "蛛": 2996,
    "蛋": 2997,
    "蛊": 2998,
    "蛇": 2999,
    "蚕": 3000,
    "蚀": 3001,
    "虽": 3002,
    "虫": 3003,
    "虚": 3004,
    "虔": 3005,
    "虑": 3006,
    "虐": 3007,
    "虏": 3008,
    "藤": 3009,
    "藓": 3010,
    "藏": 3011,
    "藉": 3012,
    "薄": 3013,
    "蕾": 3014,
    "蕴": 3015,
    "蔽": 3016,
    "蔓": 3017,
    "蔑": 3018,
    "蓝": 3019,
    "蓄": 3020,
    "蒸": 3021,
    "蒙": 3022,
    "蒂": 3023,
    "葵": 3024,
    "葬": 3025,
    "著": 3026,
    "落": 3027,
    "萨": 3028,
    "萦": 3029,
    "营": 3030,
    "萝": 3031,
    "萌": 3032,
    "菲": 3033,
    "菌": 3034,
    "莽": 3035,
    "获": 3036,
    "莲": 3037,
    "莱": 3038,
    "莫": 3039,
    "莎": 3040,
    "莉": 3041,
    "荷": 3042,
    "药": 3043,
    "荫": 3044,
    "荣": 3045,
    "荡": 3046,
    "荒": 3047,
    "草": 3048,
    "荆": 3049,
    "茬": 3050,
    "茫": 3051,
    "茨": 3052,
    "茧": 3053,
    "茎": 3054,
    "茉": 3055,
    "范": 3056,
    "英": 3057,
    "苦": 3058,
    "若": 3059,
    "苟": 3060,
    "苗": 3061,
    "苔": 3062,
    "苏": 3063,
    "苍": 3064,
    "芽": 3065,
    "芳": 3066,
    "花": 3067,
    "芜": 3068,
    "芒": 3069,
    "节": 3070,
    "艾": 3071,
    "艺": 3072,
    "艳": 3073,
    "色": 3074,
    "艰": 3075,
    "良": 3076,
    "艘": 3077,
    "船": 3078,
    "舰": 3079,
    "般": 3080,
    "航": 3081,
    "舟": 3082,
    "舞": 3083,
    "舒": 3084,
    "致": 3085,
    "至": 3086,
    "臭": 3087,
    "自": 3088,
    "臣": 3089,
    "臂": 3090,
    "膨": 3091,
    "膝": 3092,
    "膛": 3093,
    "膀": 3094,
    "腿": 3095,
    "腾": 3096,
    "腱": 3097,
    "腰": 3098,
    "腥": 3099,
    "腔": 3100,
    "腐": 3101,
    "脾": 3102,
    "脸": 3103,
    "脱": 3104,
    "脚": 3105,
    "脑": 3106,
    "脏": 3107,
    "脊": 3108,
    "脉": 3109,
    "脆": 3110,
    "能": 3111,
    "胸": 3112,
    "胡": 3113,
    "胞": 3114,
    "胜": 3115,
    "胚": 3116,
    "胖": 3117,
    "胎": 3118,
    "背": 3119,
    "胆": 3120,
    "胁": 3121,
    "胀": 3122,
    "肿": 3123,
    "肺": 3124,
    "育": 3125,
    "肯": 3126,
    "肩": 3127,
    "肥": 3128,
    "肤": 3129,
    "肢": 3130,
    "股": 3131,
    "肠": 3132,
    "肚": 3133,
    "肌": 3134,
    "肉": 3135,
    "肆": 3136,
    "聪": 3137,
    "聚": 3138,
    "联": 3139,
    "职": 3140,
    "聋": 3141,
    "聊": 3142,
    "耻": 3143,
    "耸": 3144,
    "耳": 3145,
    "耗": 3146,
    "耕": 3147,
    "耐": 3148,
    "而": 3149,
    "者": 3150,
    "考": 3151,
    "老": 3152,
    "耀": 3153,
    "翼": 3154,
    "翻": 3155,
    "翱": 3156,
    "翩": 3157,
    "翠": 3158,
    "翔": 3159,
    "翅": 3160,
    "羽": 3161,
    "群": 3162,
    "羞": 3163,
    "美": 3164,
    "羁": 3165,
    "置": 3166,
    "罪": 3167,
    "罩": 3168,
    "罚": 3169,
    "罗": 3170,
    "罕": 3171,
    "网": 3172,
    "罐": 3173,
    "缺": 3174,
    "缴": 3175,
    "缭": 3176,
    "缩": 3177,
    "缠": 3178,
    "缝": 3179,
    "缚": 3180,
    "缘": 3181,
    "编": 3182,
    "缔": 3183,
    "缓": 3184,
    "绿": 3185,
    "绽": 3186,
    "综": 3187,
    "绵": 3188,
    "维": 3189,
    "绳": 3190,
    "续": 3191,
    "绪": 3192,
    "继": 3193,
    "统": 3194,
    "绝": 3195,
    "络": 3196,
    "给": 3197,
    "绘": 3198,
    "绕": 3199,
    "结": 3200,
    "绑": 3201,
    "经": 3202,
    "绊": 3203,
    "终": 3204,
    "织": 3205,
    "细": 3206,
    "组": 3207,
    "练": 3208,
    "线": 3209,
    "纽": 3210,
    "纺": 3211,
    "纹": 3212,
    "纸": 3213,
    "纷": 3214,
    "纵": 3215,
    "纳": 3216,
    "纱": 3217,
    "纯": 3218,
    "纭": 3219,
    "纪": 3220,
    "级": 3221,
    "约": 3222,
    "红": 3223,
    "纠": 3224,
    "繁": 3225,
    "累": 3226,
    "紫": 3227,
    "紧": 3228,
    "索": 3229,
    "素": 3230,
    "系": 3231,
    "糟": 3232,
    "糙": 3233,
    "糕": 3234,
    "糊": 3235,
    "精": 3236,
    "粹": 3237,
    "粘": 3238,
    "粗": 3239,
    "粒": 3240,
    "粉": 3241,
    "类": 3242,
    "米": 3243,
    "籍": 3244,
    "簸": 3245,
    "篷": 3246,
    "篡": 3247,
    "篝": 3248,
    "篇": 3249,
    "箴": 3250,
    "箭": 3251,
    "管": 3252,
    "算": 3253,
    "箍": 3254,
    "简": 3255,
    "签": 3256,
    "策": 3257,
    "答": 3258,
    "筑": 3259,
    "筋": 3260,
    "等": 3261,
    "笼": 3262,
    "第": 3263,
    "符": 3264,
    "笞": 3265,
    "笔": 3266,
    "笑": 3267,
    "端": 3268,
    "竭": 3269,
    "童": 3270,
    "竟": 3271,
    "竞": 3272,
    "站": 3273,
    "立": 3274,
    "窥": 3275,
    "窟": 3276,
    "窝": 3277,
    "窗": 3278,
    "窒": 3279,
    "窍": 3280,
    "窄": 3281,
    "窃": 3282,
    "突": 3283,
    "穿": 3284,
    "空": 3285,
    "穹": 3286,
    "穷": 3287,
    "究": 3288,
    "穴": 3289,
    "稼": 3290,
    "稳": 3291,
    "稠": 3292,
    "稔": 3293,
    "稍": 3294,
    "程": 3295,
    "稀": 3296,
    "秽": 3297,
    "移": 3298,
    "称": 3299,
    "积": 3300,
    "秩": 3301,
    "秧": 3302,
    "秘": 3303,
    "秒": 3304,
    "科": 3305,
    "种": 3306,
    "秋": 3307,
    "私": 3308,
    "秀": 3309,
    "离": 3310,
    "福": 3311,
    "禁": 3312,
    "祸": 3313,
    "祭": 3314,
    "祟": 3315,
    "神": 3316,
    "祝": 3317,
    "祖": 3318,
    "祈": 3319,
    "祀": 3320,
    "社": 3321,
    "礼": 3322,
    "示": 3323,
    "礁": 3324,
    "磨": 3325,
    "磁": 3326,
    "碾": 3327,
    "碰": 3328,
    "碧": 3329,
    "碑": 3330,
    "碎": 3331,
    "碍": 3332,
    "确": 3333,
    "硬": 3334,
    "硝": 3335,
    "硕": 3336,
    "础": 3337,
    "砺": 3338,
    "砸": 3339,
    "破": 3340,
    "砚": 3341,
    "研": 3342,
    "砍": 3343,
    "砂": 3344,
    "矿": 3345,
    "石": 3346,
    "矮": 3347,
    "短": 3348,
    "矫": 3349,
    "矩": 3350,
    "知": 3351,
    "矢": 3352,
    "矛": 3353,
    "瞬": 3354,
    "瞥": 3355,
    "瞄": 3356,
    "睿": 3357,
    "睹": 3358,
    "睨": 3359,
    "睥": 3360,
    "睡": 3361,
    "睛": 3362,
    "睐": 3363,
    "睁": 3364,
    "着": 3365,
    "眼": 3366,
    "眷": 3367,
    "眩": 3368,
    "眠": 3369,
    "真": 3370,
    "看": 3371,
    "眉": 3372,
    "眀": 3373,
    "盾": 3374,
    "相": 3375,
    "直": 3376,
    "盲": 3377,
    "盯": 3378,
    "目": 3379,
    "盟": 3380,
    "盛": 3381,
    "盘": 3382,
    "盗": 3383,
    "盖": 3384,
    "盔": 3385,
    "监": 3386,
    "盐": 3387,
    "益": 3388,
    "盈": 3389,
    "盆": 3390,
    "皮": 3391,
    "皇": 3392,
    "的": 3393,
    "百": 3394,
    "白": 3395,
    "登": 3396,
    "癫": 3397,
    "癖": 3398,
    "瘴": 3399,
    "瘫": 3400,
    "瘦": 3401,
    "瘤": 3402,
    "瘟": 3403,
    "痹": 3404,
    "痰": 3405,
    "痛": 3406,
    "痕": 3407,
    "痍": 3408,
    "症": 3409,
    "病": 3410,
    "疾": 3411,
    "疼": 3412,
    "疲": 3413,
    "疯": 3414,
    "疮": 3415,
    "疫": 3416,
    "疣": 3417,
    "疚": 3418,
    "疗": 3419,
    "疑": 3420,
    "疏": 3421,
    "疆": 3422,
    "番": 3423,
    "略": 3424,
    "畜": 3425,
    "留": 3426,
    "畔": 3427,
    "畏": 3428,
    "界": 3429,
    "畅": 3430,
    "画": 3431,
    "男": 3432,
    "电": 3433,
    "甲": 3434,
    "由": 3435,
    "田": 3436,
    "甩": 3437,
    "用": 3438,
    "生": 3439,
    "甚": 3440,
    "甘": 3441,
    "甄": 3442,
    "瓶": 3443,
    "瓦": 3444,
    "璨": 3445,
    "璃": 3446,
    "璀": 3447,
    "瑟": 3448,
    "瑞": 3449,
    "琼": 3450,
    "琐": 3451,
    "理": 3452,
    "球": 3453,
    "珠": 3454,
    "珍": 3455,
    "玻": 3456,
    "现": 3457,
    "环": 3458,
    "玩": 3459,
    "玛": 3460,
    "王": 3461,
    "玉": 3462,
    "率": 3463,
    "玄": 3464,
    "獸": 3465,
    "猾": 3466,
    "猴": 3467,
    "献": 3468,
    "猫": 3469,
    "猪": 3470,
    "猩": 3471,
    "猜": 3472,
    "猛": 3473,
    "猎": 3474,
    "狼": 3475,
    "狱": 3476,
    "狰": 3477,
    "狮": 3478,
    "狭": 3479,
    "独": 3480,
    "狡": 3481,
    "狠": 3482,
    "狞": 3483,
    "狙": 3484,
    "狗": 3485,
    "狈": 3486,
    "狂": 3487,
    "犹": 3488,
    "状": 3489,
    "犯": 3490,
    "犀": 3491,
    "牺": 3492,
    "特": 3493,
    "牵": 3494,
    "牲": 3495,
    "物": 3496,
    "牧": 3497,
    "牢": 3498,
    "牛": 3499,
    "牙": 3500,
    "牒": 3501,
    "牌": 3502,
    "版": 3503,
    "片": 3504,
    "爽": 3505,
    "父": 3506,
    "爱": 3507,
    "爬": 3508,
    "爪": 3509,
    "爆": 3510,
    "燥": 3511,
    "燎": 3512,
    "燃": 3513,
    "熠": 3514,
    "熟": 3515,
    "熔": 3516,
    "熊": 3517,
    "熄": 3518,
    "煽": 3519,
    "照": 3520,
    "煌": 3521,
    "然": 3522,
    "焰": 3523,
    "焦": 3524,
    "焚": 3525,
    "热": 3526,
    "烬": 3527,
    "烧": 3528,
    "烦": 3529,
    "烤": 3530,
    "烟": 3531,
    "烙": 3532,
    "烈": 3533,
    "烂": 3534,
    "烁": 3535,
    "炽": 3536,
    "炼": 3537,
    "点": 3538,
    "炸": 3539,
    "炮": 3540,
    "炫": 3541,
    "炙": 3542,
    "炘": 3543,
    "炎": 3544,
    "炉": 3545,
    "灿": 3546,
    "灾": 3547,
    "灼": 3548,
    "灶": 3549,
    "灵": 3550,
    "灰": 3551,
    "灯": 3552,
    "灭": 3553,
    "火": 3554,
    "灌": 3555,
    "濒": 3556,
    "激": 3557,
    "澜": 3558,
    "潮": 3559,
    "潭": 3560,
    "潜": 3561,
    "漫": 3562,
    "漪": 3563,
    "漩": 3564,
    "漠": 3565,
    "演": 3566,
    "漏": 3567,
    "漆": 3568,
    "漂": 3569,
    "滴": 3570,
    "滩": 3571,
    "滥": 3572,
    "满": 3573,
    "滞": 3574,
    "滚": 3575,
    "滔": 3576,
    "滑": 3577,
    "滋": 3578,
    "溯": 3579,
    "溢": 3580,
    "溜": 3581,
    "源": 3582,
    "溅": 3583,
    "溃": 3584,
    "湿": 3585,
    "湾": 3586,
    "湮": 3587,
    "湛": 3588,
    "湖": 3589,
    "渺": 3590,
    "游": 3591,
    "渴": 3592,
    "港": 3593,
    "温": 3594,
    "渝": 3595,
    "渗": 3596,
    "渔": 3597,
    "渐": 3598,
    "渊": 3599,
    "清": 3600,
    "添": 3601,
    "淹": 3602,
    "混": 3603,
    "深": 3604,
    "淬": 3605,
    "淤": 3606,
    "淡": 3607,
    "淘": 3608,
    "淌": 3609,
    "淀": 3610,
    "液": 3611,
    "涯": 3612,
    "涩": 3613,
    "涤": 3614,
    "涡": 3615,
    "涟": 3616,
    "涕": 3617,
    "涌": 3618,
    "涉": 3619,
    "消": 3620,
    "涅": 3621,
    "涂": 3622,
    "浸": 3623,
    "海": 3624,
    "浴": 3625,
    "浮": 3626,
    "浪": 3627,
    "浩": 3628,
    "浓": 3629,
    "浑": 3630,
    "济": 3631,
    "测": 3632,
    "浊": 3633,
    "浇": 3634,
    "浆": 3635,
    "浅": 3636,
    "流": 3637,
    "派": 3638,
    "洼": 3639,
    "活": 3640,
    "洲": 3641,
    "洪": 3642,
    "津": 3643,
    "洞": 3644,
    "洛": 3645,
    "洗": 3646,
    "洒": 3647,
    "洋": 3648,
    "洁": 3649,
    "泽": 3650,
    "泻": 3651,
    "泯": 3652,
    "泪": 3653,
    "注": 3654,
    "泣": 3655,
    "波": 3656,
    "泡": 3657,
    "泛": 3658,
    "法": 3659,
    "泌": 3660,
    "泊": 3661,
    "泉": 3662,
    "泄": 3663,
    "沿": 3664,
    "治": 3665,
    "油": 3666,
    "沸": 3667,
    "河": 3668,
    "沦": 3669,
    "没": 3670,
    "沟": 3671,
    "沛": 3672,
    "沙": 3673,
    "沐": 3674,
    "沌": 3675,
    "沉": 3676,
    "沃": 3677,
    "汽": 3678,
    "汲": 3679,
    "汰": 3680,
    "污": 3681,
    "池": 3682,
    "江": 3683,
    "汗": 3684,
    "汐": 3685,
    "汉": 3686,
    "汇": 3687,
    "求": 3688,
    "汁": 3689,
    "汀": 3690,
    "永": 3691,
    "水": 3692,
    "气": 3693,
    "民": 3694,
    "毯": 3695,
    "毫": 3696,
    "毛": 3697,
    "毙": 3698,
    "毕": 3699,
    "比": 3700,
    "毒": 3701,
    "每": 3702,
    "母": 3703,
    "毅": 3704,
    "毁": 3705,
    "殿": 3706,
    "段": 3707,
    "殴": 3708,
    "殖": 3709,
    "残": 3710,
    "殊": 3711,
    "殇": 3712,
    "殆": 3713,
    "殁": 3714,
    "歼": 3715,
    "死": 3716,
    "歹": 3717,
    "歧": 3718,
    "武": 3719,
    "步": 3720,
    "此": 3721,
    "正": 3722,
    "止": 3723,
    "歌": 3724,
    "欺": 3725,
    "欲": 3726,
    "欧": 3727,
    "欣": 3728,
    "欢": 3729,
    "次": 3730,
    "橡": 3731,
    "横": 3732,
    "模": 3733,
    "榴": 3734,
    "榨": 3735,
    "概": 3736,
    "楚": 3737,
    "植": 3738,
    "椅": 3739,
    "棵": 3740,
    "森": 3741,
    "棘": 3742,
    "棒": 3743,
    "棍": 3744,
    "检": 3745,
    "械": 3746,
    "梭": 3747,
    "梦": 3748,
    "梅": 3749,
    "桶": 3750,
    "桩": 3751,
    "档": 3752,
    "桌": 3753,
    "案": 3754,
    "格": 3755,
    "根": 3756,
    "核": 3757,
    "样": 3758,
    "校": 3759,
    "栗": 3760,
    "树": 3761,
    "栏": 3762,
    "标": 3763,
    "柴": 3764,
    "柱": 3765,
    "查": 3766,
    "柔": 3767,
    "染": 3768,
    "某": 3769,
    "柄": 3770,
    "枷": 3771,
    "架": 3772,
    "枯": 3773,
    "枫": 3774,
    "枪": 3775,
    "枝": 3776,
    "果": 3777,
    "枚": 3778,
    "林": 3779,
    "析": 3780,
    "构": 3781,
    "极": 3782,
    "板": 3783,
    "松": 3784,
    "杰": 3785,
    "杯": 3786,
    "杨": 3787,
    "来": 3788,
    "条": 3789,
    "束": 3790,
    "杜": 3791,
    "杖": 3792,
    "村": 3793,
    "材": 3794,
    "杆": 3795,
    "权": 3796,
    "杂": 3797,
    "杀": 3798,
    "朽": 3799,
    "机": 3800,
    "朵": 3801,
    "术": 3802,
    "本": 3803,
    "末": 3804,
    "未": 3805,
    "木": 3806,
    "期": 3807,
    "朝": 3808,
    "望": 3809,
    "朗": 3810,
    "服": 3811,
    "朋": 3812,
    "有": 3813,
    "月": 3814,
    "最": 3815,
    "替": 3816,
    "曾": 3817,
    "曼": 3818,
    "更": 3819,
    "曲": 3820,
    "曜": 3821,
    "曙": 3822,
    "暴": 3823,
    "暮": 3824,
    "暗": 3825,
    "暇": 3826,
    "暂": 3827,
    "智": 3828,
    "晶": 3829,
    "晴": 3830,
    "晰": 3831,
    "景": 3832,
    "普": 3833,
    "晨": 3834,
    "晦": 3835,
    "晚": 3836,
    "晕": 3837,
    "晓": 3838,
    "晋": 3839,
    "晃": 3840,
    "显": 3841,
    "昵": 3842,
    "是": 3843,
    "昭": 3844,
    "春": 3845,
    "映": 3846,
    "星": 3847,
    "昔": 3848,
    "易": 3849,
    "昏": 3850,
    "明": 3851,
    "昆": 3852,
    "昂": 3853,
    "时": 3854,
    "旱": 3855,
    "早": 3856,
    "旧": 3857,
    "旦": 3858,
    "日": 3859,
    "既": 3860,
    "无": 3861,
    "旗": 3862,
    "族": 3863,
    "旋": 3864,
    "旅": 3865,
    "旁": 3866,
    "施": 3867,
    "方": 3868,
    "新": 3869,
    "斯": 3870,
    "断": 3871,
    "斩": 3872,
    "斧": 3873,
    "斥": 3874,
    "料": 3875,
    "斗": 3876,
    "斑": 3877,
    "文": 3878,
    "整": 3879,
    "敲": 3880,
    "数": 3881,
    "敬": 3882,
    "散": 3883,
    "敢": 3884,
    "敞": 3885,
    "教": 3886,
    "敕": 3887,
    "救": 3888,
    "敏": 3889,
    "敌": 3890,
    "效": 3891,
    "故": 3892,
    "政": 3893,
    "放": 3894,
    "攻": 3895,
    "改": 3896,
    "收": 3897,
    "支": 3898,
    "攒": 3899,
    "擒": 3900,
    "擎": 3901,
    "操": 3902,
    "擅": 3903,
    "撼": 3904,
    "撰": 3905,
    "播": 3906,
    "撬": 3907,
    "撞": 3908,
    "撕": 3909,
    "撒": 3910,
    "摸": 3911,
    "摩": 3912,
    "摧": 3913,
    "摔": 3914,
    "摊": 3915,
    "摇": 3916,
    "摆": 3917,
    "摄": 3918,
    "摁": 3919,
    "携": 3920,
    "搭": 3921,
    "搜": 3922,
    "搏": 3923,
    "搅": 3924,
    "援": 3925,
    "揭": 3926,
    "握": 3927,
    "插": 3928,
    "提": 3929,
    "描": 3930,
    "揉": 3931,
    "掷": 3932,
    "措": 3933,
    "掩": 3934,
    "推": 3935,
    "控": 3936,
    "接": 3937,
    "探": 3938,
    "掠": 3939,
    "掘": 3940,
    "排": 3941,
    "掐": 3942,
    "掌": 3943,
    "掉": 3944,
    "授": 3945,
    "掀": 3946,
    "捷": 3947,
    "捶": 3948,
    "据": 3949,
    "捣": 3950,
    "换": 3951,
    "损": 3952,
    "捞": 3953,
    "捕": 3954,
    "捉": 3955,
    "捆": 3956,
    "挽": 3957,
    "挺": 3958,
    "振": 3959,
    "挫": 3960,
    "挨": 3961,
    "挥": 3962,
    "挤": 3963,
    "挣": 3964,
    "挡": 3965,
    "挠": 3966,
    "挚": 3967,
    "挖": 3968,
    "挑": 3969,
    "按": 3970,
    "指": 3971,
    "挂": 3972,
    "持": 3973,
    "拿": 3974,
    "拾": 3975,
    "拽": 3976,
    "拼": 3977,
    "拳": 3978,
    "拯": 3979,
    "括": 3980,
    "择": 3981,
    "拦": 3982,
    "拥": 3983,
    "拢": 3984,
    "拜": 3985,
    "招": 3986,
    "拖": 3987,
    "拔": 3988,
    "拓": 3989,
    "拒": 3990,
    "拉": 3991,
    "拆": 3992,
    "担": 3993,
    "拂": 3994,
    "抽": 3995,
    "押": 3996,
    "抹": 3997,
    "抵": 3998,
    "抱": 3999,
    "抬": 4000,
    "披": 4001,
    "报": 4002,
    "护": 4003,
    "抛": 4004,
    "抚": 4005,
    "折": 4006,
    "抗": 4007,
    "抖": 4008,
    "投": 4009,
    "抓": 4010,
    "抑": 4011,
    "把": 4012,
    "抉": 4013,
    "技": 4014,
    "承": 4015,
    "找": 4016,
    "扼": 4017,
    "扶": 4018,
    "扳": 4019,
    "扰": 4020,
    "扯": 4021,
    "扭": 4022,
    "扬": 4023,
    "扫": 4024,
    "扩": 4025,
    "执": 4026,
    "托": 4027,
    "扔": 4028,
    "打": 4029,
    "扒": 4030,
    "扑": 4031,
    "扎": 4032,
    "才": 4033,
    "手": 4034,
    "扉": 4035,
    "扇": 4036,
    "扁": 4037,
    "所": 4038,
    "房": 4039,
    "户": 4040,
    "戴": 4041,
    "戮": 4042,
    "截": 4043,
    "战": 4044,
    "或": 4045,
    "戒": 4046,
    "我": 4047,
    "成": 4048,
    "戏": 4049,
    "戈": 4050,
    "懑": 4051,
    "懈": 4052,
    "憾": 4053,
    "憎": 4054,
    "慰": 4055,
    "慧": 4056,
    "慢": 4057,
    "慎": 4058,
    "慌": 4059,
    "慈": 4060,
    "愿": 4061,
    "愧": 4062,
    "愤": 4063,
    "感": 4064,
    "愚": 4065,
    "意": 4066,
    "愉": 4067,
    "愈": 4068,
    "惹": 4069,
    "想": 4070,
    "惫": 4071,
    "惩": 4072,
    "惨": 4073,
    "惧": 4074,
    "惠": 4075,
    "惕": 4076,
    "惑": 4077,
    "惊": 4078,
    "情": 4079,
    "悼": 4080,
    "悲": 4081,
    "悯": 4082,
    "悬": 4083,
    "您": 4084,
    "悦": 4085,
    "患": 4086,
    "悠": 4087,
    "悟": 4088,
    "悚": 4089,
    "悔": 4090,
    "悉": 4091,
    "悄": 4092,
    "恼": 4093,
    "恶": 4094,
    "息": 4095,
    "恪": 4096,
    "恩": 4097,
    "恨": 4098,
    "恣": 4099,
    "恢": 4100,
    "恒": 4101,
    "恐": 4102,
    "恋": 4103,
    "总": 4104,
    "怯": 4105,
    "怪": 4106,
    "怨": 4107,
    "性": 4108,
    "急": 4109,
    "思": 4110,
    "怜": 4111,
    "怖": 4112,
    "怕": 4113,
    "怒": 4114,
    "怎": 4115,
    "态": 4116,
    "怀": 4117,
    "忽": 4118,
    "念": 4119,
    "忱": 4120,
    "快": 4121,
    "忧": 4122,
    "忠": 4123,
    "忙": 4124,
    "忘": 4125,
    "志": 4126,
    "忍": 4127,
    "忌": 4128,
    "忆": 4129,
    "必": 4130,
    "心": 4131,
    "德": 4132,
    "微": 4133,
    "循": 4134,
    "御": 4135,
    "徜": 4136,
    "徘": 4137,
    "得": 4138,
    "徒": 4139,
    "徐": 4140,
    "律": 4141,
    "徊": 4142,
    "徉": 4143,
    "很": 4144,
    "待": 4145,
    "径": 4146,
    "征": 4147,
    "往": 4148,
    "彼": 4149,
    "彻": 4150,
    "役": 4151,
    "影": 4152,
    "彩": 4153,
    "形": 4154,
    "彗": 4155,
    "录": 4156,
    "当": 4157,
    "归": 4158,
    "强": 4159,
    "弹": 4160,
    "弱": 4161,
    "弩": 4162,
    "弧": 4163,
    "弥": 4164,
    "张": 4165,
    "弟": 4166,
    "弗": 4167,
    "引": 4168,
    "弓": 4169,
    "式": 4170,
    "弋": 4171,
    "弄": 4172,
    "弃": 4173,
    "异": 4174,
    "开": 4175,
    "建": 4176,
    "廷": 4177,
    "延": 4178,
    "廓": 4179,
    "康": 4180,
    "庭": 4181,
    "座": 4182,
    "度": 4183,
    "废": 4184,
    "庞": 4185,
    "府": 4186,
    "庙": 4187,
    "店": 4188,
    "底": 4189,
    "应": 4190,
    "库": 4191,
    "序": 4192,
    "床": 4193,
    "庇": 4194,
    "庆": 4195,
    "庄": 4196,
    "广": 4197,
    "幽": 4198,
    "幼": 4199,
    "幻": 4200,
    "幸": 4201,
    "并": 4202,
    "年": 4203,
    "平": 4204,
    "干": 4205,
    "幕": 4206,
    "幅": 4207,
    "帽": 4208,
    "常": 4209,
    "帮": 4210,
    "席": 4211,
    "带": 4212,
    "帝": 4213,
    "帘": 4214,
    "帕": 4215,
    "希": 4216,
    "师": 4217,
    "帆": 4218,
    "帅": 4219,
    "布": 4220,
    "市": 4221,
    "巷": 4222,
    "巴": 4223,
    "已": 4224,
    "己": 4225,
    "差": 4226,
    "巫": 4227,
    "巨": 4228,
    "巧": 4229,
    "左": 4230,
    "工": 4231,
    "巢": 4232,
    "巡": 4233,
    "州": 4234,
    "川": 4235,
    "巍": 4236,
    "巅": 4237,
    "嵌": 4238,
    "崽": 4239,
    "崩": 4240,
    "崛": 4241,
    "崖": 4242,
    "崔": 4243,
    "崎": 4244,
    "崇": 4245,
    "峰": 4246,
    "峭": 4247,
    "峙": 4248,
    "岸": 4249,
    "岭": 4250,
    "岩": 4251,
    "岛": 4252,
    "岗": 4253,
    "岖": 4254,
    "岁": 4255,
    "屿": 4256,
    "屹": 4257,
    "山": 4258,
    "履": 4259,
    "屠": 4260,
    "属": 4261,
    "展": 4262,
    "屑": 4263,
    "屏": 4264,
    "屎": 4265,
    "屋": 4266,
    "屈": 4267,
    "居": 4268,
    "层": 4269,
    "局": 4270,
    "尾": 4271,
    "尽": 4272,
    "尼": 4273,
    "尺": 4274,
    "尸": 4275,
    "就": 4276,
    "尤": 4277,
    "尝": 4278,
    "尚": 4279,
    "尘": 4280,
    "尖": 4281,
    "尔": 4282,
    "少": 4283,
    "小": 4284,
    "尊": 4285,
    "将": 4286,
    "射": 4287,
    "封": 4288,
    "寿": 4289,
    "导": 4290,
    "寻": 4291,
    "寺": 4292,
    "对": 4293,
    "寸": 4294,
    "寥": 4295,
    "寡": 4296,
    "察": 4297,
    "寒": 4298,
    "寐": 4299,
    "富": 4300,
    "密": 4301,
    "寄": 4302,
    "寂": 4303,
    "宿": 4304,
    "宽": 4305,
    "容": 4306,
    "家": 4307,
    "宴": 4308,
    "害": 4309,
    "宰": 4310,
    "宫": 4311,
    "室": 4312,
    "宣": 4313,
    "客": 4314,
    "审": 4315,
    "宠": 4316,
    "实": 4317,
    "宝": 4318,
    "定": 4319,
    "宙": 4320,
    "官": 4321,
    "宗": 4322,
    "完": 4323,
    "安": 4324,
    "守": 4325,
    "宇": 4326,
    "宅": 4327,
    "它": 4328,
    "宁": 4329,
    "孽": 4330,
    "孺": 4331,
    "孵": 4332,
    "孩": 4333,
    "学": 4334,
    "孤": 4335,
    "季": 4336,
    "孙": 4337,
    "存": 4338,
    "字": 4339,
    "孕": 4340,
    "孔": 4341,
    "子": 4342,
    "嬉": 4343,
    "嫩": 4344,
    "嫉": 4345,
    "媚": 4346,
    "媒": 4347,
    "婴": 4348,
    "婪": 4349,
    "婉": 4350,
    "婆": 4351,
    "娴": 4352,
    "娱": 4353,
    "娜": 4354,
    "娇": 4355,
    "娅": 4356,
    "威": 4357,
    "姿": 4358,
    "姑": 4359,
    "姐": 4360,
    "始": 4361,
    "姆": 4362,
    "妻": 4363,
    "妹": 4364,
    "妮": 4365,
    "妥": 4366,
    "妙": 4367,
    "妖": 4368,
    "妒": 4369,
    "妈": 4370,
    "妇": 4371,
    "妄": 4372,
    "如": 4373,
    "好": 4374,
    "她": 4375,
    "奴": 4376,
    "女": 4377,
    "奥": 4378,
    "套": 4379,
    "奖": 4380,
    "奔": 4381,
    "契": 4382,
    "奏": 4383,
    "奎": 4384,
    "奋": 4385,
    "奉": 4386,
    "奈": 4387,
    "奇": 4388,
    "夺": 4389,
    "夷": 4390,
    "头": 4391,
    "失": 4392,
    "央": 4393,
    "夭": 4394,
    "夫": 4395,
    "太": 4396,
    "天": 4397,
    "大": 4398,
    "够": 4399,
    "夜": 4400,
    "多": 4401,
    "外": 4402,
    "夕": 4403,
    "夏": 4404,
    "复": 4405,
    "备": 4406,
    "处": 4407,
    "壳": 4408,
    "声": 4409,
    "壮": 4410,
    "士": 4411,
    "壤": 4412,
    "壕": 4413,
    "壑": 4414,
    "壁": 4415,
    "墨": 4416,
    "墟": 4417,
    "增": 4418,
    "墙": 4419,
    "墓": 4420,
    "境": 4421,
    "填": 4422,
    "塞": 4423,
    "塔": 4424,
    "塑": 4425,
    "塌": 4426,
    "堵": 4427,
    "堪": 4428,
    "堡": 4429,
    "堕": 4430,
    "堆": 4431,
    "堂": 4432,
    "基": 4433,
    "培": 4434,
    "域": 4435,
    "城": 4436,
    "埋": 4437,
    "埃": 4438,
    "垮": 4439,
    "垫": 4440,
    "垠": 4441,
    "垒": 4442,
    "型": 4443,
    "垂": 4444,
    "坦": 4445,
    "坤": 4446,
    "坡": 4447,
    "坠": 4448,
    "坟": 4449,
    "坚": 4450,
    "块": 4451,
    "坑": 4452,
    "坐": 4453,
    "坏": 4454,
    "坍": 4455,
    "坊": 4456,
    "均": 4457,
    "场": 4458,
    "地": 4459,
    "在": 4460,
    "圣": 4461,
    "土": 4462,
    "圈": 4463,
    "圆": 4464,
    "图": 4465,
    "国": 4466,
    "固": 4467,
    "围": 4468,
    "困": 4469,
    "园": 4470,
    "团": 4471,
    "因": 4472,
    "回": 4473,
    "四": 4474,
    "囚": 4475,
    "囊": 4476,
    "嚣": 4477,
    "嚎": 4478,
    "噬": 4479,
    "噩": 4480,
    "器": 4481,
    "嘶": 4482,
    "嘴": 4483,
    "嘲": 4484,
    "嘛": 4485,
    "嘘": 4486,
    "嘉": 4487,
    "嗫": 4488,
    "嗥": 4489,
    "嗤": 4490,
    "嗣": 4491,
    "嗜": 4492,
    "嗖": 4493,
    "嗓": 4494,
    "喻": 4495,
    "喷": 4496,
    "喝": 4497,
    "喜": 4498,
    "喙": 4499,
    "喘": 4500,
    "喊": 4501,
    "喉": 4502,
    "喇": 4503,
    "善": 4504,
    "喂": 4505,
    "商": 4506,
    "啃": 4507,
    "唱": 4508,
    "唰": 4509,
    "唯": 4510,
    "唬": 4511,
    "唤": 4512,
    "唠": 4513,
    "唐": 4514,
    "哼": 4515,
    "哲": 4516,
    "哮": 4517,
    "哭": 4518,
    "哪": 4519,
    "哨": 4520,
    "哥": 4521,
    "哝": 4522,
    "哑": 4523,
    "响": 4524,
    "哈": 4525,
    "品": 4526,
    "哀": 4527,
    "咳": 4528,
    "咬": 4529,
    "咫": 4530,
    "咧": 4531,
    "咤": 4532,
    "咙": 4533,
    "咕": 4534,
    "咒": 4535,
    "和": 4536,
    "咆": 4537,
    "命": 4538,
    "呼": 4539,
    "呻": 4540,
    "呵": 4541,
    "味": 4542,
    "周": 4543,
    "呢": 4544,
    "呛": 4545,
    "员": 4546,
    "告": 4547,
    "呆": 4548,
    "吼": 4549,
    "吻": 4550,
    "吹": 4551,
    "吸": 4552,
    "吵": 4553,
    "启": 4554,
    "听": 4555,
    "含": 4556,
    "吧": 4557,
    "否": 4558,
    "吟": 4559,
    "吞": 4560,
    "君": 4561,
    "吓": 4562,
    "向": 4563,
    "吐": 4564,
    "吏": 4565,
    "后": 4566,
    "名": 4567,
    "同": 4568,
    "吉": 4569,
    "合": 4570,
    "各": 4571,
    "吃": 4572,
    "叹": 4573,
    "司": 4574,
    "号": 4575,
    "叶": 4576,
    "右": 4577,
    "史": 4578,
    "台": 4579,
    "可": 4580,
    "召": 4581,
    "叫": 4582,
    "只": 4583,
    "叨": 4584,
    "另": 4585,
    "句": 4586,
    "古": 4587,
    "口": 4588,
    "叠": 4589,
    "叛": 4590,
    "变": 4591,
    "受": 4592,
    "取": 4593,
    "叔": 4594,
    "发": 4595,
    "反": 4596,
    "双": 4597,
    "友": 4598,
    "及": 4599,
    "叉": 4600,
    "又": 4601,
    "参": 4602,
    "去": 4603,
    "原": 4604,
    "厚": 4605,
    "厌": 4606,
    "压": 4607,
    "厉": 4608,
    "历": 4609,
    "厅": 4610,
    "厄": 4611,
    "卷": 4612,
    "卵": 4613,
    "却": 4614,
    "即": 4615,
    "危": 4616,
    "印": 4617,
    "卫": 4618,
    "卡": 4619,
    "占": 4620,
    "卜": 4621,
    "博": 4622,
    "南": 4623,
    "卖": 4624,
    "单": 4625,
    "卓": 4626,
    "卒": 4627,
    "卑": 4628,
    "协": 4629,
    "华": 4630,
    "半": 4631,
    "午": 4632,
    "升": 4633,
    "千": 4634,
    "十": 4635,
    "匿": 4636,
    "医": 4637,
    "区": 4638,
    "匹": 4639,
    "匪": 4640,
    "匠": 4641,
    "北": 4642,
    "化": 4643,
    "匕": 4644,
    "包": 4645,
    "匀": 4646,
    "勿": 4647,
    "勾": 4648,
    "勤": 4649,
    "勒": 4650,
    "勉": 4651,
    "勇": 4652,
    "势": 4653,
    "劳": 4654,
    "劲": 4655,
    "励": 4656,
    "劫": 4657,
    "努": 4658,
    "助": 4659,
    "动": 4660,
    "劣": 4661,
    "务": 4662,
    "加": 4663,
    "功": 4664,
    "办": 4665,
    "劝": 4666,
    "力": 4667,
    "劈": 4668,
    "割": 4669,
    "副": 4670,
    "剪": 4671,
    "剩": 4672,
    "剧": 4673,
    "剥": 4674,
    "剑": 4675,
    "前": 4676,
    "削": 4677,
    "剃": 4678,
    "剂": 4679,
    "刻": 4680,
    "刺": 4681,
    "刷": 4682,
    "制": 4683,
    "到": 4684,
    "刮": 4685,
    "别": 4686,
    "利": 4687,
    "判": 4688,
    "初": 4689,
    "创": 4690,
    "刚": 4691,
    "则": 4692,
    "列": 4693,
    "划": 4694,
    "刑": 4695,
    "切": 4696,
    "分": 4697,
    "刃": 4698,
    "刀": 4699,
    "凿": 4700,
    "击": 4701,
    "出": 4702,
    "凶": 4703,
    "凳": 4704,
    "凰": 4705,
    "凯": 4706,
    "凭": 4707,
    "凤": 4708,
    "凡": 4709,
    "几": 4710,
    "凝": 4711,
    "凑": 4712,
    "减": 4713,
    "凌": 4714,
    "凋": 4715,
    "凉": 4716,
    "准": 4717,
    "净": 4718,
    "冻": 4719,
    "冷": 4720,
    "况": 4721,
    "决": 4722,
    "冲": 4723,
    "冰": 4724,
    "冬": 4725,
    "冥": 4726,
    "冤": 4727,
    "冠": 4728,
    "农": 4729,
    "军": 4730,
    "写": 4731,
    "冒": 4732,
    "再": 4733,
    "内": 4734,
    "兽": 4735,
    "养": 4736,
    "兹": 4737,
    "典": 4738,
    "具": 4739,
    "其": 4740,
    "兵": 4741,
    "兴": 4742,
    "关": 4743,
    "共": 4744,
    "兰": 4745,
    "六": 4746,
    "公": 4747,
    "全": 4748,
    "入": 4749,
    "兜": 4750,
    "免": 4751,
    "克": 4752,
    "光": 4753,
    "先": 4754,
    "兆": 4755,
    "充": 4756,
    "兄": 4757,
    "元": 4758,
    "允": 4759,
    "儿": 4760,
    "儡": 4761,
    "僻": 4762,
    "僵": 4763,
    "僧": 4764,
    "像": 4765,
    "傻": 4766,
    "傲": 4767,
    "催": 4768,
    "傅": 4769,
    "傀": 4770,
    "偿": 4771,
    "偷": 4772,
    "偶": 4773,
    "健": 4774,
    "停": 4775,
    "做": 4776,
    "偏": 4777,
    "偎": 4778,
    "假": 4779,
    "倾": 4780,
    "值": 4781,
    "倦": 4782,
    "借": 4783,
    "候": 4784,
    "倒": 4785,
    "倍": 4786,
    "俱": 4787,
    "俯": 4788,
    "修": 4789,
    "俩": 4790,
    "信": 4791,
    "保": 4792,
    "俘": 4793,
    "俗": 4794,
    "俑": 4795,
    "促": 4796,
    "便": 4797,
    "侵": 4798,
    "侧": 4799,
    "侦": 4800,
    "侥": 4801,
    "侣": 4802,
    "侠": 4803,
    "依": 4804,
    "供": 4805,
    "侍": 4806,
    "例": 4807,
    "使": 4808,
    "佳": 4809,
    "佤": 4810,
    "佣": 4811,
    "你": 4812,
    "作": 4813,
    "佛": 4814,
    "余": 4815,
    "何": 4816,
    "体": 4817,
    "佑": 4818,
    "住": 4819,
    "低": 4820,
    "位": 4821,
    "但": 4822,
    "伽": 4823,
    "似": 4824,
    "伸": 4825,
    "伴": 4826,
    "估": 4827,
    "伪": 4828,
    "伦": 4829,
    "伤": 4830,
    "传": 4831,
    "伟": 4832,
    "会": 4833,
    "伙": 4834,
    "优": 4835,
    "众": 4836,
    "休": 4837,
    "伐": 4838,
    "伏": 4839,
    "伊": 4840,
    "企": 4841,
    "仿": 4842,
    "份": 4843,
    "任": 4844,
    "价": 4845,
    "件": 4846,
    "仲": 4847,
    "仰": 4848,
    "们": 4849,
    "仪": 4850,
    "以": 4851,
    "令": 4852,
    "代": 4853,
    "仙": 4854,
    "付": 4855,
    "仗": 4856,
    "他": 4857,
    "仔": 4858,
    "从": 4859,
    "仍": 4860,
    "介": 4861,
    "今": 4862,
    "仇": 4863,
    "仆": 4864,
    "仅": 4865,
    "仁": 4866,
    "什": 4867,
    "亿": 4868,
    "人": 4869,
    "亲": 4870,
    "亮": 4871,
    "享": 4872,
    "亨": 4873,
    "产": 4874,
    "亦": 4875,
    "交": 4876,
    "亡": 4877,
    "些": 4878,
    "亚": 4879,
    "井": 4880,
    "五": 4881,
    "互": 4882,
    "云": 4883,
    "于": 4884,
    "二": 4885,
    "事": 4886,
    "争": 4887,
    "予": 4888,
    "了": 4889,
    "乾": 4890,
    "乱": 4891,
    "买": 4892,
    "书": 4893,
    "乡": 4894,
    "习": 4895,
    "也": 4896,
    "乞": 4897,
    "九": 4898,
    "乘": 4899,
    "乐": 4900,
    "乏": 4901,
    "乎": 4902,
    "乍": 4903,
    "乌": 4904,
    "之": 4905,
    "义": 4906,
    "么": 4907,
    "久": 4908,
    "乃": 4909,
    "举": 4910,
    "丽": 4911,
    "主": 4912,
    "为": 4913,
    "丹": 4914,
    "丸": 4915,
    "临": 4916,
    "串": 4917,
    "丰": 4918,
    "中": 4919,
    "个": 4920,
    "丧": 4921,
    "严": 4922,
    "两": 4923,
    "丢": 4924,
    "丝": 4925,
    "东": 4926,
    "丛": 4927,
    "业": 4928,
    "丘": 4929,
    "世": 4930,
    "且": 4931,
    "专": 4932,
    "丑": 4933,
    "丐": 4934,
    "与": 4935,
    "不": 4936,
    "下": 4937,
    "上": 4938,
    "三": 4939,
    "丈": 4940,
    "万": 4941,
    "七": 4942,
    "丁": 4943,
    "一": 4944,
    "。": 4945,
    "、": 4946,
    "…": 4947,
    "”": 4948,
    "“": 4949,
    "—": 4950,
    "·": 4951,
    "y": 4952,
    "x": 4953,
    "w": 4954,
    "v": 4955,
    "u": 4956,
    "t": 4957,
    "s": 4958,
    "r": 4959,
    "q": 4960,
    "p": 4961,
    "o": 4962,
    "n": 4963,
    "m": 4964,
    "l": 4965,
    "k": 4966,
    "j": 4967,
    "i": 4968,
    "h": 4969,
    "g": 4970,
    "f": 4971,
    "e": 4972,
    "d": 4973,
    "c": 4974,
    "b": 4975,
    "a": 4976,
    "_": 4977,
    ">": 4978,
    "=": 4979,
    "<": 4980,
    "9": 4981,
    "8": 4982,
    "7": 4983,
    "6": 4984,
    "5": 4985,
    "4": 4986,
    "3": 4987,
    "2": 4988,
    "1": 4989,
    "0": 4990,
    "/": 4991,
    ".": 4992,
    "-": 4993,
    ",": 4994,
    "+": 4995,
    "'": 4996,
    "%": 4997,
    "#": 4998,
    "\"": 4999
  },
  "id_to_token": {
    "0": "abilitychanneltime</w>",
    "1": "abilityduration</w>",
    "2": "buff_duration</w>",
    "3": "_multiplier</w>",
    "4": "_damage_pct</w>",
    "5": "multiplier</w>",
    "6": "abilitychannel",
    "7": "_duration</w>",
    "8": "_distance</w>",
    "9": "获得移动速度加成</w>",
    "10": "敌方单位造成伤害</w>",
    "11": "对非英雄单位造成</w>",
    "12": "一定百分比的伤害</w>",
    "13": "interval</w>",
    "14": "hreshold</w>",
    "15": "duration</w>",
    "16": "_tooltip</w>",
    "17": "造成伤害和眩晕</w>",
    "18": "造成伤害和减速</w>",
    "19": "移动和攻击速度</w>",
    "20": "目标的移动速度</w>",
    "21": "的敌人造成伤害</w>",
    "22": "敌人的移动速度</w>",
    "23": "减缓其移动速度</w>",
    "24": "uration</w>",
    "25": "tooltip</w>",
    "26": "_radius</w>",
    "27": "_damage</w>",
    "28": "造成额外伤害</w>",
    "29": "移动速度加成</w>",
    "30": "的一定百分比</w>",
    "31": "攻击速度加成</w>",
    "32": "攻击距离加成</w>",
    "33": "一个敌方单位</w>",
    "34": "radius</w>",
    "35": "ooltip</w>",
    "36": "d671a9</w>",
    "37": "chance</w>",
    "38": "cabe68</w>",
    "39": "7998b5</w>",
    "40": "的冷却时间</w>",
    "41": "攻击力加成</w>",
    "42": "减速和伤害</w>",
    "43": "一定百分比</w>",
    "44": "speed</w>",
    "45": "range</w>",
    "46": "multiplie",
    "47": "count</w>",
    "48": "color</w>",
    "49": "abilitych",
    "50": "abe68</w>",
    "51": "魔法抗性</w>",
    "52": "魔法伤害</w>",
    "53": "驱散类型</w>",
    "54": "驱散效果</w>",
    "55": "额外伤害</w>",
    "56": "隐身状态</w>",
    "57": "造成伤害</w>",
    "58": "负面效果</w>",
    "59": "致命一击</w>",
    "60": "背景故事</w>",
    "61": "纯粹伤害</w>",
    "62": "移动速度</w>",
    "63": "短暂眩晕</w>",
    "64": "真实视域</w>",
    "65": "的魔法值</w>",
    "66": "的攻击力</w>",
    "67": "生命恢复</w>",
    "68": "猛击地面</w>",
    "69": "物理伤害</w>",
    "70": "治疗效果</w>",
    "71": "时间越长</w>",
    "72": "无法攻击</w>",
    "73": "敌方英雄</w>",
    "74": "敌方单位</w>",
    "75": "攻击速度</w>",
    "76": "持续施法</w>",
    "77": "持续伤害</w>",
    "78": "技能描述</w>",
    "79": "得到提升</w>",
    "80": "吸血效果</w>",
    "81": "受到伤害</w>",
    "82": "友方英雄</w>",
    "83": "友方单位</w>",
    "84": "减速效果</w>",
    "85": "time</w>",
    "86": "olor</w>",
    "87": "multipli",
    "88": "interval",
    "89": "font</w>",
    "90": "elay</w>",
    "91": "cooldown",
    "92": "ance</w>",
    "93": "_pct</w>",
    "94": "_damage_",
    "95": "魔法值</w>",
    "96": "雷元素</w>",
    "97": "被眩晕</w>",
    "98": "被摧毁</w>",
    "99": "被减速</w>",
    "100": "被减缓</w>",
    "101": "范围内所有敌人",
    "102": "英雄名</w>",
    "103": "竞技场</w>",
    "104": "的能量</w>",
    "105": "的能力</w>",
    "106": "的等级</w>",
    "107": "的秘密</w>",
    "108": "的生物</w>",
    "109": "的状态</w>",
    "110": "的灵魂</w>",
    "111": "的时候</w>",
    "112": "的敌人</w>",
    "113": "的幻象</w>",
    "114": "的存在</w>",
    "115": "的地方</w>",
    "116": "的单位</w>",
    "117": "的力量</w>",
    "118": "的作用</w>",
    "119": "的伤害</w>",
    "120": "的传说</w>",
    "121": "的东西</w>",
    "122": "的世界</w>",
    "123": "生命值</w>",
    "124": "点伤害</w>",
    "125": "火元素</w>",
    "126": "攻击力</w>",
    "127": "技能6</w>",
    "128": "技能5</w>",
    "129": "技能4</w>",
    "130": "技能3</w>",
    "131": "技能2</w>",
    "132": "技能1</w>",
    "133": "强驱散</w>",
    "134": "弱驱散</w>",
    "135": "延迟后</w>",
    "136": "对敌方单位造成",
    "137": "在那里</w>",
    "138": "在一起</w>",
    "139": "取决于</w>",
    "140": "冲击波</w>",
    "141": "冰元素</w>",
    "142": "倍伤害</w>",
    "143": "事实上</w>",
    "144": "为目标</w>",
    "145": "uration",
    "146": "unt</w>",
    "147": "tip</w>",
    "148": "pct</w>",
    "149": "ooldown",
    "150": "ont</w>",
    "151": "hreshol",
    "152": "e68</w>",
    "153": "duction",
    "154": "damage_",
    "155": "attack_",
    "156": "active_",
    "157": "ability",
    "158": "_percen",
    "159": "_bonus_",
    "160": "鲜血</w>",
    "161": "魔法</w>",
    "162": "骑士</w>",
    "163": "驱散</w>",
    "164": "食人魔魔法师",
    "165": "飞行</w>",
    "166": "风暴</w>",
    "167": "领域</w>",
    "168": "隐身</w>",
    "169": "陷阱</w>",
    "170": "降低</w>",
    "171": "附近</w>",
    "172": "阵亡</w>",
    "173": "闪电</w>",
    "174": "长大</w>",
    "175": "邪恶</w>",
    "176": "造成</w>",
    "177": "迷宫</w>",
    "178": "连接</w>",
    "179": "过去</w>",
    "180": "身边</w>",
    "181": "身后</w>",
    "182": "身上</w>",
    "183": "跳跃</w>",
    "184": "距离</w>",
    "185": "越高</w>",
    "186": "越远</w>",
    "187": "越大</w>",
    "188": "超过</w>",
    "189": "起来</w>",
    "190": "诅咒</w>",
    "191": "认为</w>",
    "192": "视野</w>",
    "193": "虚空</w>",
    "194": "获得</w>",
    "195": "药剂</w>",
    "196": "范围内的敌人",
    "197": "范围</w>",
    "198": "英雄</w>",
    "199": "自身</w>",
    "200": "自己</w>",
    "201": "脉冲</w>",
    "202": "能量</w>",
    "203": "能力</w>",
    "204": "而出</w>",
    "205": "缴械</w>",
    "206": "缠绕</w>",
    "207": "结束</w>",
    "208": "经过</w>",
    "209": "终于</w>",
    "210": "精灵</w>",
    "211": "类型</w>",
    "212": "箭矢</w>",
    "213": "等级</w>",
    "214": "突袭</w>",
    "215": "空中</w>",
    "216": "移动</w>",
    "217": "离开</w>",
    "218": "碎片</w>",
    "219": "眩晕</w>",
    "220": "目标</w>",
    "221": "的是</w>",
    "222": "的人</w>",
    "223": "瘟疫</w>",
    "224": "痛苦</w>",
    "225": "生物</w>",
    "226": "生活</w>",
    "227": "生命</w>",
    "228": "现在</w>",
    "229": "状态</w>",
    "230": "爆炸</w>",
    "231": "爆发</w>",
    "232": "然而</w>",
    "233": "灵魂</w>",
    "234": "火焰</w>",
    "235": "混沌</w>",
    "236": "深渊</w>",
    "237": "消失</w>",
    "238": "法术</w>",
    "239": "法师</w>",
    "240": "法则</w>",
    "241": "沉默</w>",
    "242": "残焰</w>",
    "243": "死去</w>",
    "244": "死亡</w>",
    "245": "森林</w>",
    "246": "树木</w>",
    "247": "来说</w>",
    "248": "来了</w>",
    "249": "束缚</w>",
    "250": "杀死</w>",
    "251": "术士</w>",
    "252": "最大生命值的",
    "253": "最多</w>",
    "254": "智慧</w>",
    "255": "显形</w>",
    "256": "时间</w>",
    "257": "施法</w>",
    "258": "施放</w>",
    "259": "新星</w>",
    "260": "敏捷</w>",
    "261": "敌人</w>",
    "262": "效果</w>",
    "263": "故事</w>",
    "264": "攻击</w>",
    "265": "提升</w>",
    "266": "描述</w>",
    "267": "控制</w>",
    "268": "捉摸</w>",
    "269": "挽歌</w>",
    "270": "持续时间结束",
    "271": "持续</w>",
    "272": "拳法</w>",
    "273": "护盾</w>",
    "274": "护甲</w>",
    "275": "技能</w>",
    "276": "打击</w>",
    "277": "战斗</w>",
    "278": "战士</w>",
    "279": "战场</w>",
    "280": "战争</w>",
    "281": "成长</w>",
    "282": "意识</w>",
    "283": "意义</w>",
    "284": "恢复</w>",
    "285": "恐惧</w>",
    "286": "怪物</w>",
    "287": "形态</w>",
    "288": "幽魂</w>",
    "289": "幻象</w>",
    "290": "并且移动速度",
    "291": "年来</w>",
    "292": "对非英雄单位",
    "293": "守卫</w>",
    "294": "存在</w>",
    "295": "威力</w>",
    "296": "大师</w>",
    "297": "大地</w>",
    "298": "外壳</w>",
    "299": "增加</w>",
    "300": "地面</w>",
    "301": "在持续时间内",
    "302": "土地</w>",
    "303": "咒语</w>",
    "304": "命运</w>",
    "305": "吞噬</w>",
    "306": "同时</w>",
    "307": "召唤</w>",
    "308": "叠加</w>",
    "309": "受到伤害并被",
    "310": "反击</w>",
    "311": "友军</w>",
    "312": "危险</w>",
    "313": "单位</w>",
    "314": "区域内的敌人",
    "315": "区域</w>",
    "316": "化身</w>",
    "317": "加成</w>",
    "318": "力量</w>",
    "319": "前进</w>",
    "320": "分裂</w>",
    "321": "击退</w>",
    "322": "出来</w>",
    "323": "减速</w>",
    "324": "减缓</w>",
    "325": "减少</w>",
    "326": "决定</w>",
    "327": "冲去</w>",
    "328": "冲击</w>",
    "329": "军队</w>",
    "330": "光环</w>",
    "331": "元素</w>",
    "332": "傀儡</w>",
    "333": "信仰</w>",
    "334": "使用</w>",
    "335": "作用</w>",
    "336": "位面</w>",
    "337": "位置</w>",
    "338": "但是</w>",
    "339": "伤害</w>",
    "340": "伙伴</w>",
    "341": "仪式</w>",
    "342": "以来</w>",
    "343": "以后</w>",
    "344": "代价</w>",
    "345": "他们</w>",
    "346": "什么</w>",
    "347": "事情</w>",
    "348": "了她</w>",
    "349": "了他</w>",
    "350": "之地</w>",
    "351": "之后</w>",
    "352": "之力</w>",
    "353": "之刃</w>",
    "354": "之中</w>",
    "355": "之下</w>",
    "356": "主人</w>",
    "357": "东西</w>",
    "358": "世界</w>",
    "359": "下来</w>",
    "360": "一次</w>",
    "361": "一样</w>",
    "362": "一天</w>",
    "363": "一切</w>",
    "364": "一击</w>",
    "365": "一个敌方单位",
    "366": "terval",
    "367": "reshol",
    "368": "radius",
    "369": "percen",
    "370": "or</w>",
    "371": "multip",
    "372": "h2</w>",
    "373": "br</w>",
    "374": "bonus_",
    "375": "b5</w>",
    "376": "attack",
    "377": "a9</w>",
    "378": "_stack",
    "379": "_damag",
    "380": "50</w>",
    "381": "？</w>",
    "382": "；</w>",
    "383": "：</w>",
    "384": "，</w>",
    "385": "）</w>",
    "386": "（</w>",
    "387": "！</w>",
    "388": "龙</w>",
    "389": "魂</w>",
    "390": "高</w>",
    "391": "验</w>",
    "392": "食人魔魔法",
    "393": "飞</w>",
    "394": "风</w>",
    "395": "面</w>",
    "396": "非英雄单位",
    "397": "静</w>",
    "398": "雷</w>",
    "399": "雨</w>",
    "400": "陆</w>",
    "401": "际</w>",
    "402": "问</w>",
    "403": "长</w>",
    "404": "里</w>",
    "405": "道</w>",
    "406": "造成眩晕和",
    "407": "造成的伤害",
    "408": "造成伤害并",
    "409": "造成伤害和",
    "410": "退</w>",
    "411": "迹</w>",
    "412": "迷</w>",
    "413": "远</w>",
    "414": "进</w>",
    "415": "过</w>",
    "416": "转</w>",
    "417": "身</w>",
    "418": "路</w>",
    "419": "起</w>",
    "420": "走</w>",
    "421": "象</w>",
    "422": "说</w>",
    "423": "话</w>",
    "424": "论</w>",
    "425": "言</w>",
    "426": "解</w>",
    "427": "视</w>",
    "428": "裂</w>",
    "429": "袭</w>",
    "430": "行</w>",
    "431": "落</w>",
    "432": "获</w>",
    "433": "范围内敌人",
    "434": "范围内所有",
    "435": "舞</w>",
    "436": "至</w>",
    "437": "者</w>",
    "438": "群</w>",
    "439": "网</w>",
    "440": "统</w>",
    "441": "线</w>",
    "442": "系</w>",
    "443": "箭</w>",
    "444": "算</w>",
    "445": "笑</w>",
    "446": "空</w>",
    "447": "移动速度和",
    "448": "秒</w>",
    "449": "神</w>",
    "450": "礼</w>",
    "451": "知</w>",
    "452": "矛</w>",
    "453": "着</w>",
    "454": "盾</w>",
    "455": "目标单位的",
    "456": "目</w>",
    "457": "的敌人造成",
    "458": "的持续时间",
    "459": "的所有单位",
    "460": "的</w>",
    "461": "界</w>",
    "462": "用</w>",
    "463": "生</w>",
    "464": "球</w>",
    "465": "现</w>",
    "466": "环</w>",
    "467": "王</w>",
    "468": "犯</w>",
    "469": "特</w>",
    "470": "物</w>",
    "471": "爪</w>",
    "472": "然</w>",
    "473": "热</w>",
    "474": "点</w>",
    "475": "灵</w>",
    "476": "灭</w>",
    "477": "火</w>",
    "478": "流</w>",
    "479": "活</w>",
    "480": "波</w>",
    "481": "法</w>",
    "482": "求</w>",
    "483": "水</w>",
    "484": "气</w>",
    "485": "民</w>",
    "486": "每</w>",
    "487": "死亡之神的",
    "488": "死</w>",
    "489": "步</w>",
    "490": "止</w>",
    "491": "次</w>",
    "492": "果</w>",
    "493": "来</w>",
    "494": "杀</w>",
    "495": "术</w>",
    "496": "望</w>",
    "497": "有一定概率",
    "498": "最大生命值",
    "499": "是</w>",
    "500": "星</w>",
    "501": "时</w>",
    "502": "旁</w>",
    "503": "方</w>",
    "504": "斩</w>",
    "505": "料</w>",
    "506": "斗</w>",
    "507": "数</w>",
    "508": "散</w>",
    "509": "敌方单位的",
    "510": "敌方单位或",
    "511": "效</w>",
    "512": "攻击速度和",
    "513": "攻击力加成",
    "514": "摸</w>",
    "515": "换</w>",
    "516": "持续时间内",
    "517": "拳</w>",
    "518": "招</w>",
    "519": "手</w>",
    "520": "战</w>",
    "521": "意</w>",
    "522": "息</w>",
    "523": "性</w>",
    "524": "怒</w>",
    "525": "心</w>",
    "526": "径</w>",
    "527": "影</w>",
    "528": "形</w>",
    "529": "当前生命值",
    "530": "强</w>",
    "531": "弹</w>",
    "532": "开</w>",
    "533": "度</w>",
    "534": "幻影长矛手",
    "535": "年</w>",
    "536": "师</w>",
    "537": "尽</w>",
    "538": "少</w>",
    "539": "射</w>",
    "540": "对敌方单位",
    "541": "对</w>",
    "542": "密</w>",
    "543": "家</w>",
    "544": "安布里家族",
    "545": "子</w>",
    "546": "她</w>",
    "547": "头</w>",
    "548": "天</w>",
    "549": "大</w>",
    "550": "外</w>",
    "551": "处</w>",
    "552": "声</w>",
    "553": "墙</w>",
    "554": "域</w>",
    "555": "型</w>",
    "556": "场</w>",
    "557": "地</w>",
    "558": "在目标地点",
    "559": "在目标区域",
    "560": "在</w>",
    "561": "土</w>",
    "562": "团</w>",
    "563": "响</w>",
    "564": "命</w>",
    "565": "向目标地点",
    "566": "向目标区域",
    "567": "后</w>",
    "568": "名</w>",
    "569": "合</w>",
    "570": "口</w>",
    "571": "受到的伤害",
    "572": "受到伤害并",
    "573": "友</w>",
    "574": "及</w>",
    "575": "去</w>",
    "576": "印</w>",
    "577": "区域内所有",
    "578": "化</w>",
    "579": "势</w>",
    "580": "动</w>",
    "581": "加</w>",
    "582": "力</w>",
    "583": "前</w>",
    "584": "刺</w>",
    "585": "制</w>",
    "586": "到</w>",
    "587": "利</w>",
    "588": "刃</w>",
    "589": "击中的敌人",
    "590": "击</w>",
    "591": "出</w>",
    "592": "军团指挥官",
    "593": "军</w>",
    "594": "内</w>",
    "595": "具</w>",
    "596": "光</w>",
    "597": "像</w>",
    "598": "傲</w>",
    "599": "值</w>",
    "600": "倍</w>",
    "601": "使</w>",
    "602": "体</w>",
    "603": "住</w>",
    "604": "位</w>",
    "605": "伤</w>",
    "606": "会</w>",
    "607": "们</w>",
    "608": "令</w>",
    "609": "代</w>",
    "610": "他对自己的",
    "611": "他</w>",
    "612": "人</w>",
    "613": "于</w>",
    "614": "事</w>",
    "615": "了</w>",
    "616": "义</w>",
    "617": "为</w>",
    "618": "临</w>",
    "619": "中</w>",
    "620": "世</w>",
    "621": "下</w>",
    "622": "上</w>",
    "623": "一定百分比",
    "624": "。</w>",
    "625": "、</w>",
    "626": "…</w>",
    "627": "”</w>",
    "628": "“</w>",
    "629": "—</w>",
    "630": "·</w>",
    "631": "y</w>",
    "632": "tive_",
    "633": "t</w>",
    "634": "steal",
    "635": "speed",
    "636": "s</w>",
    "637": "r</w>",
    "638": "ility",
    "639": "e</w>",
    "640": "damag",
    "641": "d</w>",
    "642": "ction",
    "643": "creep",
    "644": "bonus",
    "645": "annel",
    "646": "_dist",
    "647": "></w>",
    "648": "=</w>",
    "649": "<</w>",
    "650": "9</w>",
    "651": "8</w>",
    "652": "5</w>",
    "653": "4</w>",
    "654": "3</w>",
    "655": "2</w>",
    "656": "1</w>",
    "657": "0</w>",
    "658": "/</w>",
    "659": ".</w>",
    "660": "-</w>",
    "661": ",</w>",
    "662": "+</w>",
    "663": "'</w>",
    "664": "%</w>",
    "665": "#</w>",
    "666": "\"</w>",
    "667": "齐天大圣",
    "668": "黑暗贤者",
    "669": "魔法抗性",
    "670": "魅惑魔女",
    "671": "骷髅弓手",
    "672": "马格纳斯",
    "673": "风暴之灵",
    "674": "附近所有",
    "675": "阿兹瑞斯",
    "676": "邪影芳灵",
    "677": "造成额外",
    "678": "造成大量",
    "679": "造成伤害",
    "680": "这个世界",
    "681": "转身速率",
    "682": "赏金猎人",
    "683": "负面状态",
    "684": "负面效果",
    "685": "虚无之灵",
    "686": "虚无之境",
    "687": "获得额外",
    "688": "范围内的",
    "689": "英雄单位",
    "690": "致命一击",
    "691": "育母蜘蛛",
    "692": "移动速度",
    "693": "祸乱之源",
    "694": "破晓辰星",
    "695": "石鳞剑士",
    "696": "短时间内",
    "697": "目标地点",
    "698": "目标单位",
    "699": "的生命值",
    "700": "的攻击力",
    "701": "瘟疫法师",
    "702": "痛苦女王",
    "703": "电炎绝手",
    "704": "生命恢复",
    "705": "生命值低",
    "706": "瑞托崔普",
    "707": "琼英碧灵",
    "708": "猴子猴孙",
    "709": "狂战士之",
    "710": "状态抗性",
    "711": "特蕾丝汀",
    "712": "炼金术士",
    "713": "灵体游魂",
    "714": "灰烬之灵",
    "715": "混沌骑士",
    "716": "注意到了",
    "717": "沉默术士",
    "718": "水晶室女",
    "719": "每次攻击",
    "720": "毁灭性的",
    "721": "死亡先知",
    "722": "死亡之神",
    "723": "森海飞霞",
    "724": "树精卫士",
    "725": "暗黑之礁",
    "726": "暗影恶魔",
    "727": "暗夜魔王",
    "728": "普通攻击",
    "729": "施放技能",
    "730": "施加一个",
    "731": "敌方英雄",
    "732": "敌方目标",
    "733": "敌方单位",
    "734": "放出一道",
    "735": "攻击速度",
    "736": "攻击距离",
    "737": "攻击敌人",
    "738": "攻击伤害",
    "739": "接下来的",
    "740": "持续时间",
    "741": "持续施法",
    "742": "恐怖利刃",
    "743": "幻影刺客",
    "744": "并且降低",
    "745": "巨魔战将",
    "746": "巨牙海民",
    "747": "将自己的",
    "748": "娜迦海妖",
    "749": "天穹守望",
    "750": "天怒法师",
    "751": "大地之灵",
    "752": "地雷滚滚",
    "753": "圣堂刺客",
    "754": "周围所有",
    "755": "司夜刺客",
    "756": "可以使用",
    "757": "召唤一个",
    "758": "变体精灵",
    "759": "受到来自",
    "760": "受到伤害",
    "761": "发现自己",
    "762": "发条技师",
    "763": "友方英雄",
    "764": "友方单位",
    "765": "卓尔游侠",
    "766": "制造一个",
    "767": "创造一个",
    "768": "减速效果",
    "769": "减益免疫",
    "770": "冷却时间",
    "771": "冥魂大帝",
    "772": "全能之神",
    "773": "克林克兹",
    "774": "伤害加上",
    "775": "仙德尔莎",
    "776": "他的力量",
    "777": "了自己的",
    "778": "不知疲倦",
    "779": "不可思议",
    "780": "上古巨神",
    "781": "一定比例",
    "782": "一个目标",
    "783": "一个敌人",
    "784": "一个单位",
    "785": "tion",
    "786": "tack",
    "787": "slow",
    "788": "shol",
    "789": "rang",
    "790": "onus",
    "791": "move",
    "792": "max_",
    "793": "mana",
    "794": "lity",
    "795": "ion_",
    "796": "down",
    "797": "dius",
    "798": "d671",
    "799": "cast",
    "800": "buff",
    "801": "ball",
    "802": "back",
    "803": "amag",
    "804": "</w>",
    "805": "7998",
    "806": "黑暗贤",
    "807": "黑暗的",
    "808": "鳞剑士",
    "809": "魔法值",
    "810": "骷髅弓",
    "811": "骷髅兵",
    "812": "骑士的",
    "813": "马格纳",
    "814": "食人魔",
    "815": "附近的",
    "816": "长矛手",
    "817": "锋利的",
    "818": "钢背兽",
    "819": "里瑟尔",
    "820": "释放出",
    "821": "都不会",
    "822": "邪恶的",
    "823": "邪影芳",
    "824": "遥远的",
    "825": "这样的",
    "826": "过程中",
    "827": "达维安",
    "828": "转化成",
    "829": "身边的",
    "830": "身上的",
    "831": "路径上",
    "832": "越来越",
    "833": "该单位",
    "834": "裂魂人",
    "835": "被称为",
    "836": "被沉默",
    "837": "被摧毁",
    "838": "虚空假",
    "839": "落地时",
    "840": "获得了",
    "841": "范围内",
    "842": "若目标",
    "843": "致命的",
    "844": "致命一",
    "845": "自身的",
    "846": "自己的",
    "847": "自己是",
    "848": "美杜莎",
    "849": "编织者",
    "850": "维萨吉",
    "851": "维罗拉",
    "852": "给他的",
    "853": "结束后",
    "854": "米拉娜",
    "855": "第一个",
    "856": "移动和",
    "857": "神圣的",
    "858": "祈求者",
    "859": "碰到的",
    "860": "石堂城",
    "861": "短暂的",
    "862": "短时间",
    "863": "着他的",
    "864": "眩晕并",
    "865": "眩晕和",
    "866": "真实视",
    "867": "直到他",
    "868": "目标的",
    "869": "目标是",
    "870": "益免疫",
    "871": "的黑暗",
    "872": "的魔法",
    "873": "的身体",
    "874": "的距离",
    "875": "的英雄",
    "876": "的能量",
    "877": "的秘密",
    "878": "的生命",
    "879": "的灵魂",
    "880": "的治疗",
    "881": "的时候",
    "882": "的方向",
    "883": "的数量",
    "884": "的敌人",
    "885": "的攻击",
    "886": "的所有",
    "887": "的战斗",
    "888": "的当前",
    "889": "的幻象",
    "890": "的年轻",
    "891": "的巫师",
    "892": "的只有",
    "893": "的叠加",
    "894": "的单位",
    "895": "的力量",
    "896": "的冷却",
    "897": "的光芒",
    "898": "的元素",
    "899": "的伤害",
    "900": "百分比",
    "901": "痛苦女",
    "902": "电炎绝",
    "903": "用他的",
    "904": "生命值",
    "905": "琼英碧",
    "906": "现在的",
    "907": "现在他",
    "908": "玛尔斯",
    "909": "王国的",
    "910": "狙击手",
    "911": "狂战士",
    "912": "物品和",
    "913": "灵魂的",
    "914": "灵体游",
    "915": "没有人",
    "916": "永恒的",
    "917": "每一个",
    "918": "母蜘蛛",
    "919": "死亡的",
    "920": "次攻击",
    "921": "森林的",
    "922": "杰奇洛",
    "923": "有几率",
    "924": "有一定",
    "925": "最近的",
    "926": "最大的",
    "927": "最后一",
    "928": "暗黑之",
    "929": "暗影之",
    "930": "暗夜魔",
    "931": "是一名",
    "932": "是一个",
    "933": "时间越",
    "934": "时间的",
    "935": "无尽的",
    "936": "施放时",
    "937": "新生儿",
    "938": "斯拉达",
    "939": "斯拉克",
    "940": "敌人的",
    "941": "攻击时",
    "942": "攻击或",
    "943": "攻击和",
    "944": "攻击力",
    "945": "提升了",
    "946": "接下来",
    "947": "指挥官",
    "948": "指向性",
    "949": "拉比克",
    "950": "拉席克",
    "951": "拉娜娅",
    "952": "护甲和",
    "953": "技能6",
    "954": "技能1",
    "955": "找到了",
    "956": "托崔普",
    "957": "扔出一",
    "958": "所有的",
    "959": "所到之",
    "960": "战行者",
    "961": "我们的",
    "962": "成为了",
    "963": "意识到",
    "964": "恐怖利",
    "965": "德鲁伊",
    "966": "很快就",
    "967": "强大的",
    "968": "强力的",
    "969": "并造成",
    "970": "并获得",
    "971": "并没有",
    "972": "并施加",
    "973": "并持续",
    "974": "并受到",
    "975": "并不是",
    "976": "年轻的",
    "977": "带来的",
    "978": "带来了",
    "979": "帕格纳",
    "980": "巨牙海",
    "981": "巨大的",
    "982": "工程师",
    "983": "就这样",
    "984": "将造成",
    "985": "将获得",
    "986": "将自身",
    "987": "将自己",
    "988": "将目标",
    "989": "将敌人",
    "990": "将受到",
    "991": "将他们",
    "992": "射出一",
    "993": "对魔法",
    "994": "对附近",
    "995": "对目标",
    "996": "对敌人",
    "997": "对建筑",
    "998": "寒冬飞",
    "999": "安布里",
    "1000": "宇宙的",
    "1001": "存在于",
    "1002": "如果你",
    "1003": "奈里夫",
    "1004": "奈克斯",
    "1005": "失去的",
    "1006": "天大圣",
    "1007": "大部分",
    "1008": "大多数",
    "1009": "复仇之",
    "1010": "地图上",
    "1011": "在那里",
    "1012": "在那些",
    "1013": "在这片",
    "1014": "在这个",
    "1015": "在目标",
    "1016": "在敌人",
    "1017": "在技能",
    "1018": "在战斗",
    "1019": "在战场",
    "1020": "在战争",
    "1021": "在他的",
    "1022": "在一个",
    "1023": "噬魂鬼",
    "1024": "唯一的",
    "1025": "哈斯卡",
    "1026": "和附近",
    "1027": "和护甲",
    "1028": "和她的",
    "1029": "和他的",
    "1030": "周围的",
    "1031": "向目标",
    "1032": "可怕的",
    "1033": "可以对",
    "1034": "可以在",
    "1035": "召唤一",
    "1036": "另一个",
    "1037": "古老的",
    "1038": "变成了",
    "1039": "受到的",
    "1040": "受到了",
    "1041": "发条技",
    "1042": "即使是",
    "1043": "卡洛克",
    "1044": "半人马",
    "1045": "区域内",
    "1046": "力量的",
    "1047": "到一个",
    "1048": "击中的",
    "1049": "出一道",
    "1050": "出一个",
    "1051": "减速和",
    "1052": "减缓其",
    "1053": "冥界亚",
    "1054": "军团的",
    "1055": "其他人",
    "1056": "其中的",
    "1057": "克林克",
    "1058": "充斥着",
    "1059": "修补匠",
    "1060": "使目标",
    "1061": "使他们",
    "1062": "伤害量",
    "1063": "伤害的",
    "1064": "伤害并",
    "1065": "伤害和",
    "1066": "传送门",
    "1067": "传送至",
    "1068": "传送到",
    "1069": "伟大的",
    "1070": "会获得",
    "1071": "会受到",
    "1072": "伐木机",
    "1073": "以英雄",
    "1074": "仙德尔",
    "1075": "他自己",
    "1076": "他开始",
    "1077": "他们的",
    "1078": "亚巴顿",
    "1079": "了所有",
    "1080": "了他的",
    "1081": "了一个",
    "1082": "乱之源",
    "1083": "也没有",
    "1084": "乌尔萨",
    "1085": "为基础",
    "1086": "世界的",
    "1087": "世界上",
    "1088": "不朽尸",
    "1089": "下来的",
    "1090": "上古巨",
    "1091": "一直在",
    "1092": "一开始",
    "1093": "ve_",
    "1094": "val",
    "1095": "ura",
    "1096": "tip",
    "1097": "tim",
    "1098": "ter",
    "1099": "spe",
    "1100": "per",
    "1101": "own",
    "1102": "ool",
    "1103": "on_",
    "1104": "nel",
    "1105": "mul",
    "1106": "mov",
    "1107": "min",
    "1108": "men",
    "1109": "max",
    "1110": "man",
    "1111": "mag",
    "1112": "it_",
    "1113": "ist",
    "1114": "ing",
    "1115": "ill",
    "1116": "ela",
    "1117": "eal",
    "1118": "d67",
    "1119": "cre",
    "1120": "cen",
    "1121": "ast",
    "1122": "arg",
    "1123": "anc",
    "1124": "all",
    "1125": "ack",
    "1126": "_st",
    "1127": "_re",
    "1128": "_li",
    "1129": "998",
    "1130": "龙的",
    "1131": "齿轮",
    "1132": "黑暗",
    "1133": "鲜血",
    "1134": "鲍什",
    "1135": "鱼人",
    "1136": "魔霭",
    "1137": "魔法",
    "1138": "魔导",
    "1139": "魔女",
    "1140": "魅惑",
    "1141": "鬼影",
    "1142": "高额",
    "1143": "高原",
    "1144": "骷髅",
    "1145": "骑士",
    "1146": "驱散",
    "1147": "马上",
    "1148": "食人",
    "1149": "飞霞",
    "1150": "飞行",
    "1151": "飞斧",
    "1152": "风暴",
    "1153": "额外",
    "1154": "领主",
    "1155": "预言",
    "1156": "预兆",
    "1157": "面对",
    "1158": "面前",
    "1159": "靠近",
    "1160": "非常",
    "1161": "露娜",
    "1162": "霜冻",
    "1163": "需要",
    "1164": "雷泽",
    "1165": "难以",
    "1166": "隐身",
    "1167": "隐藏",
    "1168": "隐秘",
    "1169": "隐形",
    "1170": "随着",
    "1171": "随机",
    "1172": "陷阱",
    "1173": "降低",
    "1174": "附近",
    "1175": "附带",
    "1176": "阿兹",
    "1177": "阻止",
    "1178": "阻挡",
    "1179": "阵亡",
    "1180": "阴影",
    "1181": "防御",
    "1182": "队友",
    "1183": "间隔",
    "1184": "间的",
    "1185": "闪避",
    "1186": "闪耀",
    "1187": "闪电",
    "1188": "闪烁",
    "1189": "长老",
    "1190": "长矛",
    "1191": "长的",
    "1192": "锯齿",
    "1193": "锯刃",
    "1194": "锁定",
    "1195": "钢背",
    "1196": "金钱",
    "1197": "野性",
    "1198": "野兽",
    "1199": "重要",
    "1200": "重新",
    "1201": "里面",
    "1202": "里的",
    "1203": "里瑟",
    "1204": "释放",
    "1205": "酷的",
    "1206": "酒馆",
    "1207": "酒仙",
    "1208": "都被",
    "1209": "都能",
    "1210": "都是",
    "1211": "都将",
    "1212": "都在",
    "1213": "都会",
    "1214": "部落",
    "1215": "部族",
    "1216": "部分",
    "1217": "邪恶",
    "1218": "邪影",
    "1219": "那里",
    "1220": "那些",
    "1221": "那么",
    "1222": "那个",
    "1223": "避免",
    "1224": "遭到",
    "1225": "遗忘",
    "1226": "遍野",
    "1227": "遇到",
    "1228": "造成",
    "1229": "速率",
    "1230": "速度",
    "1231": "通过",
    "1232": "逐渐",
    "1233": "选择",
    "1234": "逃跑",
    "1235": "逃离",
    "1236": "追踪",
    "1237": "追求",
    "1238": "追寻",
    "1239": "迷雾",
    "1240": "迷宫",
    "1241": "连接",
    "1242": "远程",
    "1243": "远离",
    "1244": "远的",
    "1245": "远古",
    "1246": "进行",
    "1247": "进入",
    "1248": "这种",
    "1249": "这片",
    "1250": "这次",
    "1251": "这样",
    "1252": "这是",
    "1253": "这些",
    "1254": "这个",
    "1255": "这一",
    "1256": "还能",
    "1257": "还有",
    "1258": "还是",
    "1259": "还将",
    "1260": "还会",
    "1261": "返回",
    "1262": "近战",
    "1263": "过程",
    "1264": "过的",
    "1265": "过去",
    "1266": "迅速",
    "1267": "达维",
    "1268": "达到",
    "1269": "辰星",
    "1270": "转身",
    "1271": "转而",
    "1272": "转移",
    "1273": "转化",
    "1274": "躯体",
    "1275": "身边",
    "1276": "身后",
    "1277": "身体",
    "1278": "身份",
    "1279": "身上",
    "1280": "踏入",
    "1281": "践踏",
    "1282": "跳跃",
    "1283": "路径",
    "1284": "距离",
    "1285": "越来",
    "1286": "超过",
    "1287": "起的",
    "1288": "赢得",
    "1289": "赐予",
    "1290": "赏金",
    "1291": "责任",
    "1292": "负面",
    "1293": "谜团",
    "1294": "诺崇",
    "1295": "试图",
    "1296": "诅咒",
    "1297": "证明",
    "1298": "设计",
    "1299": "许多",
    "1300": "记忆",
    "1301": "记得",
    "1302": "训练",
    "1303": "让他",
    "1304": "认为",
    "1305": "计划",
    "1306": "誓要",
    "1307": "触发",
    "1308": "解命",
    "1309": "觉得",
    "1310": "视野",
    "1311": "视着",
    "1312": "规模",
    "1313": "装置",
    "1314": "裂魂",
    "1315": "裂缝",
    "1316": "被动",
    "1317": "被他",
    "1318": "行走",
    "1319": "行者",
    "1320": "行动",
    "1321": "行为",
    "1322": "血魔",
    "1323": "血腥",
    "1324": "血肉",
    "1325": "血液",
    "1326": "融合",
    "1327": "蝮蛇",
    "1328": "蝙蝠",
    "1329": "蜘蛛",
    "1330": "蛛网",
    "1331": "虽然",
    "1332": "虚空",
    "1333": "虚无",
    "1334": "落的",
    "1335": "落地",
    "1336": "落在",
    "1337": "获得",
    "1338": "莱瑞",
    "1339": "莱恩",
    "1340": "莉莱",
    "1341": "莉娜",
    "1342": "药剂",
    "1343": "荣誉",
    "1344": "荆棘",
    "1345": "范围",
    "1346": "英雄",
    "1347": "若干",
    "1348": "苍白",
    "1349": "花树",
    "1350": "艾欧",
    "1351": "色的",
    "1352": "舰队",
    "1353": "致命",
    "1354": "自身",
    "1355": "自由",
    "1356": "自然",
    "1357": "自我",
    "1358": "自己",
    "1359": "自动",
    "1360": "腐蚀",
    "1361": "腐烂",
    "1362": "脱离",
    "1363": "脑海",
    "1364": "脉冲",
    "1365": "能量",
    "1366": "能让",
    "1367": "能够",
    "1368": "能力",
    "1369": "胜利",
    "1370": "背景",
    "1371": "背叛",
    "1372": "肉体",
    "1373": "肆虐",
    "1374": "聚集",
    "1375": "而是",
    "1376": "而他",
    "1377": "而且",
    "1378": "者的",
    "1379": "者们",
    "1380": "美杜",
    "1381": "罗斯",
    "1382": "缴械",
    "1383": "缠绕",
    "1384": "编织",
    "1385": "缓慢",
    "1386": "维萨",
    "1387": "维罗",
    "1388": "维持",
    "1389": "绳索",
    "1390": "继续",
    "1391": "继承",
    "1392": "统治",
    "1393": "绝望",
    "1394": "绝对",
    "1395": "给他",
    "1396": "给予",
    "1397": "结束",
    "1398": "经过",
    "1399": "经常",
    "1400": "经历",
    "1401": "终结",
    "1402": "终极",
    "1403": "终于",
    "1404": "组织",
    "1405": "纷纷",
    "1406": "纯粹",
    "1407": "精神",
    "1408": "精灵",
    "1409": "精心",
    "1410": "精华",
    "1411": "精准",
    "1412": "粉碎",
    "1413": "米波",
    "1414": "箭矢",
    "1415": "等级",
    "1416": "等待",
    "1417": "笼罩",
    "1418": "第一",
    "1419": "竞技",
    "1420": "立刻",
    "1421": "窃取",
    "1422": "穿过",
    "1423": "穿越",
    "1424": "空中",
    "1425": "移除",
    "1426": "移动",
    "1427": "称为",
    "1428": "秩序",
    "1429": "秘密",
    "1430": "秒后",
    "1431": "秒内",
    "1432": "种族",
    "1433": "种子",
    "1434": "离开",
    "1435": "禁锢",
    "1436": "祭司",
    "1437": "神谕",
    "1438": "神秘",
    "1439": "神智",
    "1440": "神圣",
    "1441": "神之",
    "1442": "祈求",
    "1443": "碰到",
    "1444": "碎片",
    "1445": "破碎",
    "1446": "破晓",
    "1447": "破坏",
    "1448": "研究",
    "1449": "矿工",
    "1450": "石的",
    "1451": "石头",
    "1452": "石像",
    "1453": "短暂",
    "1454": "知道",
    "1455": "知识",
    "1456": "知的",
    "1457": "知晓",
    "1458": "瞬间",
    "1459": "着他",
    "1460": "着一",
    "1461": "眩晕",
    "1462": "真正",
    "1463": "真实",
    "1464": "看着",
    "1465": "看到",
    "1466": "相比",
    "1467": "相当",
    "1468": "相信",
    "1469": "相互",
    "1470": "直线",
    "1471": "直接",
    "1472": "直到",
    "1473": "目睹",
    "1474": "目标",
    "1475": "盟友",
    "1476": "监牢",
    "1477": "的魔",
    "1478": "的花",
    "1479": "的神",
    "1480": "的火",
    "1481": "的深",
    "1482": "的暴",
    "1483": "的是",
    "1484": "的无",
    "1485": "的方",
    "1486": "的手",
    "1487": "的战",
    "1488": "的巨",
    "1489": "的山",
    "1490": "的小",
    "1491": "的对",
    "1492": "的天",
    "1493": "的大",
    "1494": "的地",
    "1495": "的圣",
    "1496": "的光",
    "1497": "的传",
    "1498": "的人",
    "1499": "的一",
    "1500": "瘟疫",
    "1501": "痛苦",
    "1502": "疲倦",
    "1503": "疯狂",
    "1504": "留下",
    "1505": "电荷",
    "1506": "由于",
    "1507": "生的",
    "1508": "生物",
    "1509": "生活",
    "1510": "生效",
    "1511": "生存",
    "1512": "生命",
    "1513": "甚至",
    "1514": "瑞斯",
    "1515": "琼英",
    "1516": "理解",
    "1517": "珍贵",
    "1518": "现实",
    "1519": "现在",
    "1520": "环绕",
    "1521": "玛西",
    "1522": "玛尔",
    "1523": "王的",
    "1524": "王庭",
    "1525": "王座",
    "1526": "王国",
    "1527": "猴孙",
    "1528": "猴子",
    "1529": "献给",
    "1530": "猛击",
    "1531": "猎手",
    "1532": "猎人",
    "1533": "狼人",
    "1534": "独自",
    "1535": "独立",
    "1536": "狡猾",
    "1537": "狙击",
    "1538": "狂风",
    "1539": "狂暴",
    "1540": "狂怒",
    "1541": "状态",
    "1542": "牺牲",
    "1543": "特蕾",
    "1544": "牵引",
    "1545": "物质",
    "1546": "物的",
    "1547": "物理",
    "1548": "物品",
    "1549": "父亲",
    "1550": "爬虫",
    "1551": "爆炸",
    "1552": "爆发",
    "1553": "燃烧",
    "1554": "熔炉",
    "1555": "熊灵",
    "1556": "然而",
    "1557": "然的",
    "1558": "然后",
    "1559": "焦油",
    "1560": "烧灼",
    "1561": "烈酒",
    "1562": "烈的",
    "1563": "烈焰",
    "1564": "烈火",
    "1565": "炼金",
    "1566": "点燃",
    "1567": "炸弹",
    "1568": "炎绝",
    "1569": "灼热",
    "1570": "灵魂",
    "1571": "灵能",
    "1572": "灵体",
    "1573": "灰烬",
    "1574": "火焰",
    "1575": "灌注",
    "1576": "激活",
    "1577": "激怒",
    "1578": "潮汐",
    "1579": "漫游",
    "1580": "满足",
    "1581": "满是",
    "1582": "满了",
    "1583": "滚滚",
    "1584": "滚动",
    "1585": "源泉",
    "1586": "溅射",
    "1587": "游侠",
    "1588": "渴望",
    "1589": "混沌",
    "1590": "深渊",
    "1591": "深海",
    "1592": "深处",
    "1593": "消耗",
    "1594": "消灭",
    "1595": "消失",
    "1596": "海洋",
    "1597": "海妖",
    "1598": "流放",
    "1599": "流传",
    "1600": "洞穴",
    "1601": "泽特",
    "1602": "注意",
    "1603": "注入",
    "1604": "波浪",
    "1605": "法术",
    "1606": "法师",
    "1607": "法则",
    "1608": "沿途",
    "1609": "治疗",
    "1610": "没有",
    "1611": "没人",
    "1612": "沙王",
    "1613": "沙漠",
    "1614": "沉默",
    "1615": "沉睡",
    "1616": "沉没",
    "1617": "汲取",
    "1618": "永远",
    "1619": "永恒",
    "1620": "永久",
    "1621": "永世",
    "1622": "水晶",
    "1623": "毫无",
    "1624": "比克",
    "1625": "比例",
    "1626": "毒素",
    "1627": "毒液",
    "1628": "毒性",
    "1629": "每秒",
    "1630": "每次",
    "1631": "每当",
    "1632": "每个",
    "1633": "每一",
    "1634": "毁灭",
    "1635": "残骸",
    "1636": "残破",
    "1637": "残留",
    "1638": "残焰",
    "1639": "残岩",
    "1640": "殁境",
    "1641": "死者",
    "1642": "死去",
    "1643": "死亡",
    "1644": "武器",
    "1645": "正是",
    "1646": "正如",
    "1647": "次数",
    "1648": "概率",
    "1649": "棵树",
    "1650": "森海",
    "1651": "森林",
    "1652": "格纳",
    "1653": "格挡",
    "1654": "根本",
    "1655": "根据",
    "1656": "树精",
    "1657": "树木",
    "1658": "标记",
    "1659": "枷锁",
    "1660": "林克",
    "1661": "杰奇",
    "1662": "来说",
    "1663": "来自",
    "1664": "来的",
    "1665": "束缚",
    "1666": "村庄",
    "1667": "杀死",
    "1668": "杀戮",
    "1669": "机器",
    "1670": "术士",
    "1671": "本身",
    "1672": "本体",
    "1673": "末日",
    "1674": "期间",
    "1675": "有限",
    "1676": "有着",
    "1677": "有的",
    "1678": "有时",
    "1679": "有所",
    "1680": "有人",
    "1681": "有些",
    "1682": "有了",
    "1683": "有一",
    "1684": "月之",
    "1685": "最高",
    "1686": "最近",
    "1687": "最终",
    "1688": "最小",
    "1689": "最大",
    "1690": "最多",
    "1691": "最后",
    "1692": "最为",
    "1693": "曾经",
    "1694": "更多",
    "1695": "更加",
    "1696": "更为",
    "1697": "暗黑",
    "1698": "暗影",
    "1699": "暂时",
    "1700": "智慧",
    "1701": "智力",
    "1702": "普通",
    "1703": "是在",
    "1704": "明白",
    "1705": "昆卡",
    "1706": "时间",
    "1707": "时刻",
    "1708": "时光",
    "1709": "时候",
    "1710": "时会",
    "1711": "早已",
    "1712": "无论",
    "1713": "无视",
    "1714": "无法",
    "1715": "无比",
    "1716": "无数",
    "1717": "无敌",
    "1718": "无尽",
    "1719": "无人",
    "1720": "族群",
    "1721": "族的",
    "1722": "族人",
    "1723": "施法",
    "1724": "施放",
    "1725": "施展",
    "1726": "施加",
    "1727": "方的",
    "1728": "方向",
    "1729": "新的",
    "1730": "新生",
    "1731": "斯温",
    "1732": "斧王",
    "1733": "文明",
    "1734": "整个",
    "1735": "数量",
    "1736": "数值",
    "1737": "数个",
    "1738": "数不",
    "1739": "教皇",
    "1740": "教团",
    "1741": "敏捷",
    "1742": "敌方",
    "1743": "敌军",
    "1744": "敌人",
    "1745": "效果",
    "1746": "故事",
    "1747": "放逐",
    "1748": "放弃",
    "1749": "放出",
    "1750": "攻击",
    "1751": "改造",
    "1752": "改变",
    "1753": "收集",
    "1754": "操控",
    "1755": "撼地",
    "1756": "撕裂",
    "1757": "摧毁",
    "1758": "搜寻",
    "1759": "提高",
    "1760": "提升",
    "1761": "提供",
    "1762": "描述",
    "1763": "控制",
    "1764": "接近",
    "1765": "接受",
    "1766": "接下",
    "1767": "掘地",
    "1768": "掌握",
    "1769": "掌控",
    "1770": "授予",
    "1771": "据说",
    "1772": "损毁",
    "1773": "损失",
    "1774": "挽歌",
    "1775": "挥舞",
    "1776": "挣扎",
    "1777": "挑战",
    "1778": "指挥",
    "1779": "指定",
    "1780": "指向",
    "1781": "持续",
    "1782": "拥有",
    "1783": "拒绝",
    "1784": "拉达",
    "1785": "拉席",
    "1786": "拉娜",
    "1787": "拉克",
    "1788": "护盾",
    "1789": "护甲",
    "1790": "抛弃",
    "1791": "抚养",
    "1792": "折磨",
    "1793": "抗性",
    "1794": "投掷",
    "1795": "投入",
    "1796": "技艺",
    "1797": "技能",
    "1798": "承受",
    "1799": "找到",
    "1800": "扭曲",
    "1801": "托崔",
    "1802": "打破",
    "1803": "打断",
    "1804": "打开",
    "1805": "打击",
    "1806": "才能",
    "1807": "才会",
    "1808": "所有",
    "1809": "所在",
    "1810": "所以",
    "1811": "房屋",
    "1812": "戴泽",
    "1813": "战锤",
    "1814": "战斗",
    "1815": "战将",
    "1816": "战士",
    "1817": "战场",
    "1818": "战争",
    "1819": "或者",
    "1820": "或是",
    "1821": "我们",
    "1822": "成熟",
    "1823": "成功",
    "1824": "成了",
    "1825": "成为",
    "1826": "慢慢",
    "1827": "愤怒",
    "1828": "感觉",
    "1829": "感染",
    "1830": "感到",
    "1831": "意识",
    "1832": "意的",
    "1833": "意志",
    "1834": "意义",
    "1835": "愈发",
    "1836": "想要",
    "1837": "想法",
    "1838": "情况",
    "1839": "悬崖",
    "1840": "悉拉",
    "1841": "恶魔",
    "1842": "恢复",
    "1843": "恐惧",
    "1844": "恐怖",
    "1845": "恐吓",
    "1846": "总是",
    "1847": "性的",
    "1848": "思议",
    "1849": "思想",
    "1850": "忽悠",
    "1851": "快速",
    "1852": "忠诚",
    "1853": "必须",
    "1854": "心的",
    "1855": "心智",
    "1856": "德鲁",
    "1857": "德尔",
    "1858": "微的",
    "1859": "得到",
    "1860": "得以",
    "1861": "很快",
    "1862": "很多",
    "1863": "彻底",
    "1864": "影魔",
    "1865": "影响",
    "1866": "形成",
    "1867": "形态",
    "1868": "当时",
    "1869": "当前",
    "1870": "当他",
    "1871": "强大",
    "1872": "强化",
    "1873": "弹跳",
    "1874": "引起",
    "1875": "引爆",
    "1876": "弓箭",
    "1877": "异的",
    "1878": "开始",
    "1879": "开启",
    "1880": "建筑",
    "1881": "延迟",
    "1882": "废墟",
    "1883": "幽魂",
    "1884": "幽鬼",
    "1885": "幽灵",
    "1886": "幽冥",
    "1887": "幼虫",
    "1888": "幻象",
    "1889": "幻影",
    "1890": "幸运",
    "1891": "幸存",
    "1892": "并未",
    "1893": "并对",
    "1894": "并在",
    "1895": "并使",
    "1896": "并且",
    "1897": "并不",
    "1898": "年轻",
    "1899": "年的",
    "1900": "干扰",
    "1901": "帮助",
    "1902": "带着",
    "1903": "带来",
    "1904": "带有",
    "1905": "带去",
    "1906": "帕吉",
    "1907": "帕克",
    "1908": "希望",
    "1909": "师的",
    "1910": "师们",
    "1911": "布里",
    "1912": "已经",
    "1913": "巫师",
    "1914": "巫妖",
    "1915": "巫医",
    "1916": "巨魔",
    "1917": "巨石",
    "1918": "巨牙",
    "1919": "工程",
    "1920": "工坊",
    "1921": "工作",
    "1922": "岩石",
    "1923": "岛屿",
    "1924": "山脉",
    "1925": "属性",
    "1926": "属于",
    "1927": "居住",
    "1928": "尽管",
    "1929": "就能",
    "1930": "就算",
    "1931": "就是",
    "1932": "就在",
    "1933": "就像",
    "1934": "就会",
    "1935": "尖叫",
    "1936": "尖刺",
    "1937": "尔萨",
    "1938": "小小",
    "1939": "将被",
    "1940": "将它",
    "1941": "将在",
    "1942": "将其",
    "1943": "将会",
    "1944": "将他",
    "1945": "射出",
    "1946": "导致",
    "1947": "导弹",
    "1948": "寻求",
    "1949": "寻找",
    "1950": "寺庙",
    "1951": "对其",
    "1952": "对他",
    "1953": "对于",
    "1954": "寥寥",
    "1955": "寒霜",
    "1956": "寒冰",
    "1957": "寒冬",
    "1958": "家的",
    "1959": "家族",
    "1960": "家伙",
    "1961": "室女",
    "1962": "实的",
    "1963": "定的",
    "1964": "宙斯",
    "1965": "完美",
    "1966": "完成",
    "1967": "完全",
    "1968": "安全",
    "1969": "守望",
    "1970": "守护",
    "1971": "守夜",
    "1972": "守卫",
    "1973": "宇宙",
    "1974": "它的",
    "1975": "它们",
    "1976": "孽主",
    "1977": "孩子",
    "1978": "学院",
    "1979": "学习",
    "1980": "存在",
    "1981": "子的",
    "1982": "娜迦",
    "1983": "威胁",
    "1984": "威力",
    "1985": "如此",
    "1986": "如果",
    "1987": "如何",
    "1988": "如今",
    "1989": "好奇",
    "1990": "她那",
    "1991": "她的",
    "1992": "她在",
    "1993": "她们",
    "1994": "女神",
    "1995": "奥术",
    "1996": "契约",
    "1997": "奈里",
    "1998": "奇怪",
    "1999": "头脑",
    "2000": "失败",
    "2001": "失去",
    "2002": "太阳",
    "2003": "太虚",
    "2004": "天赋",
    "2005": "天穹",
    "2006": "天生",
    "2007": "天怒",
    "2008": "天大",
    "2009": "大铭",
    "2010": "大量",
    "2011": "大的",
    "2012": "大幅",
    "2013": "大帝",
    "2014": "大地",
    "2015": "大军",
    "2016": "夜魔",
    "2017": "夜晚",
    "2018": "多数",
    "2019": "多年",
    "2020": "多个",
    "2021": "外的",
    "2022": "外界",
    "2023": "外壳",
    "2024": "外出",
    "2025": "复制",
    "2026": "复仇",
    "2027": "处的",
    "2028": "处于",
    "2029": "声音",
    "2030": "士兵",
    "2031": "增强",
    "2032": "增加",
    "2033": "墓碑",
    "2034": "堂城",
    "2035": "基础",
    "2036": "基于",
    "2037": "城市",
    "2038": "坚信",
    "2039": "地面",
    "2040": "地雷",
    "2041": "地的",
    "2042": "地狱",
    "2043": "地点",
    "2044": "地图",
    "2045": "地下",
    "2046": "地上",
    "2047": "在那",
    "2048": "在这",
    "2049": "在被",
    "2050": "在此",
    "2051": "在她",
    "2052": "在地",
    "2053": "在原",
    "2054": "在其",
    "2055": "在他",
    "2056": "在了",
    "2057": "在一",
    "2058": "圣池",
    "2059": "圣堂",
    "2060": "土地",
    "2061": "国的",
    "2062": "国王",
    "2063": "固定",
    "2064": "围绕",
    "2065": "困住",
    "2066": "因此",
    "2067": "因为",
    "2068": "回归",
    "2069": "回复",
    "2070": "回到",
    "2071": "四处",
    "2072": "噬魂",
    "2073": "噩梦",
    "2074": "喜欢",
    "2075": "唯一",
    "2076": "哈斯",
    "2077": "咒语",
    "2078": "和平",
    "2079": "和他",
    "2080": "咆哮",
    "2081": "命运",
    "2082": "呼唤",
    "2083": "周围",
    "2084": "告诉",
    "2085": "吸血",
    "2086": "吸收",
    "2087": "吸取",
    "2088": "启动",
    "2089": "吞噬",
    "2090": "向她",
    "2091": "向前",
    "2092": "吐息",
    "2093": "后的",
    "2094": "后将",
    "2095": "后会",
    "2096": "名字",
    "2097": "同胞",
    "2098": "同类",
    "2099": "同样",
    "2100": "同时",
    "2101": "同伴",
    "2102": "同一",
    "2103": "各种",
    "2104": "司夜",
    "2105": "可见",
    "2106": "可能",
    "2107": "可怕",
    "2108": "可以",
    "2109": "召唤",
    "2110": "只要",
    "2111": "只能",
    "2112": "只有",
    "2113": "只是",
    "2114": "另外",
    "2115": "另一",
    "2116": "古老",
    "2117": "叠加",
    "2118": "变身",
    "2119": "变成",
    "2120": "变得",
    "2121": "变化",
    "2122": "变体",
    "2123": "变为",
    "2124": "受到",
    "2125": "取决",
    "2126": "发生",
    "2127": "发现",
    "2128": "发条",
    "2129": "发射",
    "2130": "发动",
    "2131": "发出",
    "2132": "反复",
    "2133": "双翼",
    "2134": "双眼",
    "2135": "双方",
    "2136": "友方",
    "2137": "友军",
    "2138": "原本",
    "2139": "原始",
    "2140": "原初",
    "2141": "历史",
    "2142": "即将",
    "2143": "即使",
    "2144": "危险",
    "2145": "卫士",
    "2146": "卡洛",
    "2147": "卡尔",
    "2148": "南海",
    "2149": "单位",
    "2150": "卓尔",
    "2151": "半人",
    "2152": "千万",
    "2153": "十分",
    "2154": "区域",
    "2155": "化的",
    "2156": "匕首",
    "2157": "包括",
    "2158": "包围",
    "2159": "勇气",
    "2160": "动物",
    "2161": "加成",
    "2162": "加入",
    "2163": "加上",
    "2164": "办法",
    "2165": "力量",
    "2166": "力的",
    "2167": "力丸",
    "2168": "剧毒",
    "2169": "剑士",
    "2170": "前来",
    "2171": "前方",
    "2172": "削弱",
    "2173": "刺针",
    "2174": "刺客",
    "2175": "刷新",
    "2176": "制造",
    "2177": "到达",
    "2178": "到了",
    "2179": "到之",
    "2180": "利的",
    "2181": "利用",
    "2182": "初始",
    "2183": "创造",
    "2184": "创世",
    "2185": "刚铎",
    "2186": "则是",
    "2187": "分裂",
    "2188": "分比",
    "2189": "击退",
    "2190": "击杀",
    "2191": "击中",
    "2192": "出身",
    "2193": "出的",
    "2194": "出生",
    "2195": "出现",
    "2196": "出于",
    "2197": "出了",
    "2198": "出一",
    "2199": "凤凰",
    "2200": "凡人",
    "2201": "几率",
    "2202": "几乎",
    "2203": "几个",
    "2204": "减速",
    "2205": "减缓",
    "2206": "减少",
    "2207": "准备",
    "2208": "冻结",
    "2209": "冷却",
    "2210": "决斗",
    "2211": "决定",
    "2212": "冲突",
    "2213": "冲撞",
    "2214": "冲击",
    "2215": "冰霜",
    "2216": "冰球",
    "2217": "冰爆",
    "2218": "冰封",
    "2219": "冥魂",
    "2220": "冥界",
    "2221": "冥想",
    "2222": "军队",
    "2223": "军团",
    "2224": "冒险",
    "2225": "再次",
    "2226": "内的",
    "2227": "内心",
    "2228": "兽王",
    "2229": "具有",
    "2230": "其它",
    "2231": "其他",
    "2232": "其中",
    "2233": "关在",
    "2234": "关于",
    "2235": "公主",
    "2236": "全部",
    "2237": "全能",
    "2238": "入侵",
    "2239": "入了",
    "2240": "免疫",
    "2241": "克斯",
    "2242": "光明",
    "2243": "光之",
    "2244": "先祖",
    "2245": "先知",
    "2246": "先兆",
    "2247": "充满",
    "2248": "充斥",
    "2249": "兄弟",
    "2250": "元素",
    "2251": "允许",
    "2252": "傀儡",
    "2253": "偷取",
    "2254": "停留",
    "2255": "停止",
    "2256": "做出",
    "2257": "值得",
    "2258": "修补",
    "2259": "信仰",
    "2260": "保护",
    "2261": "便车",
    "2262": "侵略",
    "2263": "依靠",
    "2264": "依然",
    "2265": "侍奉",
    "2266": "使者",
    "2267": "使用",
    "2268": "使其",
    "2269": "使他",
    "2270": "佣兽",
    "2271": "你的",
    "2272": "作用",
    "2273": "作为",
    "2274": "体的",
    "2275": "体内",
    "2276": "住民",
    "2277": "低语",
    "2278": "位面",
    "2279": "位置",
    "2280": "但是",
    "2281": "似乎",
    "2282": "伤害",
    "2283": "传送",
    "2284": "传说",
    "2285": "传统",
    "2286": "传来",
    "2287": "会被",
    "2288": "会对",
    "2289": "会在",
    "2290": "伙伴",
    "2291": "伐木",
    "2292": "任意",
    "2293": "任务",
    "2294": "任何",
    "2295": "们的",
    "2296": "仪式",
    "2297": "以及",
    "2298": "令人",
    "2299": "代的",
    "2300": "代价",
    "2301": "仙女",
    "2302": "他那",
    "2303": "他还",
    "2304": "他被",
    "2305": "他能",
    "2306": "他的",
    "2307": "他用",
    "2308": "他是",
    "2309": "他就",
    "2310": "他将",
    "2311": "他对",
    "2312": "他在",
    "2313": "他会",
    "2314": "他们",
    "2315": "他从",
    "2316": "他也",
    "2317": "他为",
    "2318": "从中",
    "2319": "从不",
    "2320": "仍然",
    "2321": "仅是",
    "2322": "什么",
    "2323": "人都",
    "2324": "人的",
    "2325": "产生",
    "2326": "亚巴",
    "2327": "云雾",
    "2328": "于是",
    "2329": "事情",
    "2330": "事实",
    "2331": "了他",
    "2332": "了一",
    "2333": "乱之",
    "2334": "也许",
    "2335": "也被",
    "2336": "也是",
    "2337": "也将",
    "2338": "也会",
    "2339": "也不",
    "2340": "之间",
    "2341": "之纱",
    "2342": "之神",
    "2343": "之灵",
    "2344": "之境",
    "2345": "之力",
    "2346": "之前",
    "2347": "之光",
    "2348": "之一",
    "2349": "主要",
    "2350": "主宰",
    "2351": "主动",
    "2352": "为他",
    "2353": "为了",
    "2354": "中被",
    "2355": "中的",
    "2356": "中最",
    "2357": "两人",
    "2358": "两个",
    "2359": "丝汀",
    "2360": "东西",
    "2361": "丛林",
    "2362": "世间",
    "2363": "世界",
    "2364": "世人",
    "2365": "专注",
    "2366": "与其",
    "2367": "与他",
    "2368": "不顾",
    "2369": "不过",
    "2370": "不论",
    "2371": "不见",
    "2372": "不能",
    "2373": "不稳",
    "2374": "不知",
    "2375": "不朽",
    "2376": "不是",
    "2377": "不断",
    "2378": "不得",
    "2379": "不可",
    "2380": "不受",
    "2381": "不再",
    "2382": "不停",
    "2383": "不会",
    "2384": "不仅",
    "2385": "下的",
    "2386": "上的",
    "2387": "上古",
    "2388": "上了",
    "2389": "一颗",
    "2390": "一道",
    "2391": "一路",
    "2392": "一起",
    "2393": "一般",
    "2394": "一股",
    "2395": "一种",
    "2396": "一直",
    "2397": "一片",
    "2398": "一点",
    "2399": "一段",
    "2400": "一步",
    "2401": "一次",
    "2402": "一样",
    "2403": "一条",
    "2404": "一旦",
    "2405": "一座",
    "2406": "一定",
    "2407": "一头",
    "2408": "一块",
    "2409": "一团",
    "2410": "一名",
    "2411": "一只",
    "2412": "一半",
    "2413": "一切",
    "2414": "一位",
    "2415": "一些",
    "2416": "一个",
    "2417": "y_",
    "2418": "us",
    "2419": "un",
    "2420": "ul",
    "2421": "ty",
    "2422": "ti",
    "2423": "t_",
    "2424": "st",
    "2425": "sp",
    "2426": "sl",
    "2427": "si",
    "2428": "sh",
    "2429": "se",
    "2430": "ro",
    "2431": "re",
    "2432": "ra",
    "2433": "po",
    "2434": "pe",
    "2435": "pc",
    "2436": "ow",
    "2437": "or",
    "2438": "on",
    "2439": "ol",
    "2440": "ng",
    "2441": "mo",
    "2442": "mi",
    "2443": "ma",
    "2444": "li",
    "2445": "is",
    "2446": "in",
    "2447": "il",
    "2448": "gh",
    "2449": "ff",
    "2450": "fe",
    "2451": "et",
    "2452": "er",
    "2453": "ep",
    "2454": "en",
    "2455": "el",
    "2456": "ed",
    "2457": "ea",
    "2458": "e_",
    "2459": "e6",
    "2460": "du",
    "2461": "di",
    "2462": "d_",
    "2463": "co",
    "2464": "ck",
    "2465": "ch",
    "2466": "bu",
    "2467": "at",
    "2468": "ar",
    "2469": "an",
    "2470": "al",
    "2471": "ac",
    "2472": "ab",
    "2473": "_t",
    "2474": "_d",
    "2475": "98",
    "2476": "67",
    "2477": "00",
    "2478": "？",
    "2479": "；",
    "2480": "：",
    "2481": "，",
    "2482": "）",
    "2483": "（",
    "2484": "！",
    "2485": "龙",
    "2486": "龄",
    "2487": "齿",
    "2488": "齐",
    "2489": "鼻",
    "2490": "鼓",
    "2491": "黠",
    "2492": "默",
    "2493": "黑",
    "2494": "黏",
    "2495": "黎",
    "2496": "黄",
    "2497": "麾",
    "2498": "麻",
    "2499": "麦",
    "2500": "鹿",
    "2501": "鹰",
    "2502": "鸿",
    "2503": "鸥",
    "2504": "鸣",
    "2505": "鸟",
    "2506": "鳞",
    "2507": "鳗",
    "2508": "鲜",
    "2509": "鲍",
    "2510": "鲁",
    "2511": "鱼",
    "2512": "魔",
    "2513": "魇",
    "2514": "魅",
    "2515": "魄",
    "2516": "魂",
    "2517": "魁",
    "2518": "鬼",
    "2519": "髯",
    "2520": "高",
    "2521": "髅",
    "2522": "骸",
    "2523": "骷",
    "2524": "骨",
    "2525": "骤",
    "2526": "骚",
    "2527": "骗",
    "2528": "骑",
    "2529": "验",
    "2530": "骇",
    "2531": "骄",
    "2532": "骂",
    "2533": "驾",
    "2534": "驶",
    "2535": "驳",
    "2536": "驱",
    "2537": "驯",
    "2538": "马",
    "2539": "首",
    "2540": "馈",
    "2541": "馆",
    "2542": "馁",
    "2543": "饿",
    "2544": "饼",
    "2545": "饶",
    "2546": "饲",
    "2547": "饱",
    "2548": "饮",
    "2549": "饭",
    "2550": "饥",
    "2551": "饕",
    "2552": "餮",
    "2553": "餐",
    "2554": "食",
    "2555": "飞",
    "2556": "飘",
    "2557": "飓",
    "2558": "风",
    "2559": "颤",
    "2560": "颠",
    "2561": "额",
    "2562": "颜",
    "2563": "颚",
    "2564": "颗",
    "2565": "颖",
    "2566": "频",
    "2567": "颊",
    "2568": "颈",
    "2569": "颇",
    "2570": "领",
    "2571": "颅",
    "2572": "预",
    "2573": "顿",
    "2574": "顾",
    "2575": "顽",
    "2576": "须",
    "2577": "顺",
    "2578": "项",
    "2579": "顶",
    "2580": "音",
    "2581": "韧",
    "2582": "鞭",
    "2583": "鞋",
    "2584": "革",
    "2585": "面",
    "2586": "靡",
    "2587": "靠",
    "2588": "非",
    "2589": "静",
    "2590": "青",
    "2591": "霹",
    "2592": "霸",
    "2593": "露",
    "2594": "霰",
    "2595": "霭",
    "2596": "霞",
    "2597": "霜",
    "2598": "霎",
    "2599": "霍",
    "2600": "霉",
    "2601": "震",
    "2602": "霆",
    "2603": "需",
    "2604": "雾",
    "2605": "雷",
    "2606": "零",
    "2607": "雳",
    "2608": "雪",
    "2609": "雨",
    "2610": "雕",
    "2611": "集",
    "2612": "雅",
    "2613": "雄",
    "2614": "难",
    "2615": "隽",
    "2616": "隼",
    "2617": "隶",
    "2618": "隧",
    "2619": "障",
    "2620": "隙",
    "2621": "隔",
    "2622": "隐",
    "2623": "随",
    "2624": "隆",
    "2625": "陷",
    "2626": "陵",
    "2627": "陪",
    "2628": "险",
    "2629": "陨",
    "2630": "除",
    "2631": "院",
    "2632": "限",
    "2633": "降",
    "2634": "陌",
    "2635": "陋",
    "2636": "陈",
    "2637": "陆",
    "2638": "际",
    "2639": "附",
    "2640": "阿",
    "2641": "阻",
    "2642": "阶",
    "2643": "阵",
    "2644": "阴",
    "2645": "阳",
    "2646": "防",
    "2647": "阱",
    "2648": "队",
    "2649": "阔",
    "2650": "阐",
    "2651": "阎",
    "2652": "阉",
    "2653": "闻",
    "2654": "间",
    "2655": "闲",
    "2656": "闯",
    "2657": "问",
    "2658": "闭",
    "2659": "闪",
    "2660": "门",
    "2661": "长",
    "2662": "镶",
    "2663": "镰",
    "2664": "镣",
    "2665": "镜",
    "2666": "镖",
    "2667": "镇",
    "2668": "锻",
    "2669": "锯",
    "2670": "键",
    "2671": "锥",
    "2672": "锤",
    "2673": "锢",
    "2674": "锡",
    "2675": "锚",
    "2676": "错",
    "2677": "锐",
    "2678": "锋",
    "2679": "锈",
    "2680": "锃",
    "2681": "锁",
    "2682": "链",
    "2683": "铺",
    "2684": "铸",
    "2685": "银",
    "2686": "铭",
    "2687": "铠",
    "2688": "铜",
    "2689": "铐",
    "2690": "铎",
    "2691": "铅",
    "2692": "铁",
    "2693": "钻",
    "2694": "钴",
    "2695": "钱",
    "2696": "钮",
    "2697": "钩",
    "2698": "钢",
    "2699": "钟",
    "2700": "钉",
    "2701": "针",
    "2702": "釜",
    "2703": "金",
    "2704": "量",
    "2705": "野",
    "2706": "重",
    "2707": "里",
    "2708": "释",
    "2709": "采",
    "2710": "醺",
    "2711": "醒",
    "2712": "醉",
    "2713": "酿",
    "2714": "酸",
    "2715": "酷",
    "2716": "酝",
    "2717": "酒",
    "2718": "配",
    "2719": "酊",
    "2720": "鄙",
    "2721": "都",
    "2722": "部",
    "2723": "邻",
    "2724": "邪",
    "2725": "那",
    "2726": "邋",
    "2727": "避",
    "2728": "遵",
    "2729": "遴",
    "2730": "遮",
    "2731": "遭",
    "2732": "遥",
    "2733": "遣",
    "2734": "遢",
    "2735": "遗",
    "2736": "道",
    "2737": "遐",
    "2738": "遏",
    "2739": "遍",
    "2740": "遇",
    "2741": "遁",
    "2742": "逼",
    "2743": "逻",
    "2744": "逸",
    "2745": "造",
    "2746": "速",
    "2747": "逝",
    "2748": "通",
    "2749": "逗",
    "2750": "途",
    "2751": "递",
    "2752": "逐",
    "2753": "透",
    "2754": "选",
    "2755": "逆",
    "2756": "逃",
    "2757": "适",
    "2758": "送",
    "2759": "退",
    "2760": "追",
    "2761": "迹",
    "2762": "迸",
    "2763": "迷",
    "2764": "述",
    "2765": "迫",
    "2766": "迪",
    "2767": "迩",
    "2768": "迦",
    "2769": "迟",
    "2770": "连",
    "2771": "违",
    "2772": "远",
    "2773": "进",
    "2774": "这",
    "2775": "还",
    "2776": "返",
    "2777": "近",
    "2778": "运",
    "2779": "迎",
    "2780": "迈",
    "2781": "过",
    "2782": "迅",
    "2783": "迄",
    "2784": "迁",
    "2785": "达",
    "2786": "边",
    "2787": "辱",
    "2788": "辰",
    "2789": "辩",
    "2790": "辣",
    "2791": "辟",
    "2792": "辞",
    "2793": "辜",
    "2794": "辛",
    "2795": "输",
    "2796": "辑",
    "2797": "辉",
    "2798": "辈",
    "2799": "辆",
    "2800": "较",
    "2801": "载",
    "2802": "轻",
    "2803": "轶",
    "2804": "轴",
    "2805": "轰",
    "2806": "轮",
    "2807": "转",
    "2808": "轨",
    "2809": "车",
    "2810": "躲",
    "2811": "躯",
    "2812": "身",
    "2813": "躁",
    "2814": "蹲",
    "2815": "蹒",
    "2816": "蹈",
    "2817": "蹄",
    "2818": "踪",
    "2819": "踩",
    "2820": "踢",
    "2821": "踏",
    "2822": "践",
    "2823": "跳",
    "2824": "路",
    "2825": "跪",
    "2826": "跨",
    "2827": "跟",
    "2828": "距",
    "2829": "跚",
    "2830": "跑",
    "2831": "跋",
    "2832": "跃",
    "2833": "足",
    "2834": "趣",
    "2835": "趋",
    "2836": "越",
    "2837": "超",
    "2838": "趁",
    "2839": "起",
    "2840": "赶",
    "2841": "赴",
    "2842": "走",
    "2843": "赦",
    "2844": "赤",
    "2845": "赢",
    "2846": "赛",
    "2847": "赚",
    "2848": "赖",
    "2849": "赐",
    "2850": "赏",
    "2851": "赎",
    "2852": "赌",
    "2853": "赋",
    "2854": "资",
    "2855": "贼",
    "2856": "费",
    "2857": "贵",
    "2858": "贴",
    "2859": "贫",
    "2860": "贪",
    "2861": "贩",
    "2862": "质",
    "2863": "账",
    "2864": "败",
    "2865": "贤",
    "2866": "责",
    "2867": "财",
    "2868": "贡",
    "2869": "负",
    "2870": "贝",
    "2871": "貌",
    "2872": "豺",
    "2873": "豫",
    "2874": "豪",
    "2875": "豢",
    "2876": "象",
    "2877": "谷",
    "2878": "谴",
    "2879": "谱",
    "2880": "谬",
    "2881": "谨",
    "2882": "谣",
    "2883": "谜",
    "2884": "谕",
    "2885": "谓",
    "2886": "谐",
    "2887": "谍",
    "2888": "谋",
    "2889": "谊",
    "2890": "谈",
    "2891": "谅",
    "2892": "谄",
    "2893": "调",
    "2894": "谁",
    "2895": "课",
    "2896": "读",
    "2897": "诺",
    "2898": "诸",
    "2899": "请",
    "2900": "说",
    "2901": "诱",
    "2902": "误",
    "2903": "语",
    "2904": "详",
    "2905": "该",
    "2906": "询",
    "2907": "诡",
    "2908": "诞",
    "2909": "话",
    "2910": "诚",
    "2911": "诗",
    "2912": "试",
    "2913": "词",
    "2914": "诋",
    "2915": "诉",
    "2916": "诈",
    "2917": "识",
    "2918": "诅",
    "2919": "评",
    "2920": "证",
    "2921": "访",
    "2922": "设",
    "2923": "讽",
    "2924": "论",
    "2925": "许",
    "2926": "讶",
    "2927": "讲",
    "2928": "记",
    "2929": "讯",
    "2930": "议",
    "2931": "训",
    "2932": "讪",
    "2933": "让",
    "2934": "认",
    "2935": "计",
    "2936": "警",
    "2937": "誓",
    "2938": "誉",
    "2939": "言",
    "2940": "触",
    "2941": "解",
    "2942": "角",
    "2943": "觐",
    "2944": "觎",
    "2945": "觊",
    "2946": "觉",
    "2947": "视",
    "2948": "觅",
    "2949": "规",
    "2950": "观",
    "2951": "见",
    "2952": "覆",
    "2953": "要",
    "2954": "西",
    "2955": "襁",
    "2956": "褴",
    "2957": "褛",
    "2958": "褓",
    "2959": "裹",
    "2960": "裔",
    "2961": "装",
    "2962": "裂",
    "2963": "裁",
    "2964": "袭",
    "2965": "被",
    "2966": "袤",
    "2967": "袖",
    "2968": "袋",
    "2969": "衷",
    "2970": "衰",
    "2971": "衫",
    "2972": "表",
    "2973": "补",
    "2974": "衣",
    "2975": "衡",
    "2976": "衔",
    "2977": "衍",
    "2978": "行",
    "2979": "血",
    "2980": "蠢",
    "2981": "螺",
    "2982": "融",
    "2983": "蝮",
    "2984": "蝠",
    "2985": "蝙",
    "2986": "蜿",
    "2987": "蜷",
    "2988": "蜴",
    "2989": "蜥",
    "2990": "蜜",
    "2991": "蜘",
    "2992": "蜕",
    "2993": "蜂",
    "2994": "蛰",
    "2995": "蛮",
    "2996": "蛛",
    "2997": "蛋",
    "2998": "蛊",
    "2999": "蛇",
    "3000": "蚕",
    "3001": "蚀",
    "3002": "虽",
    "3003": "虫",
    "3004": "虚",
    "3005": "虔",
    "3006": "虑",
    "3007": "虐",
    "3008": "虏",
    "3009": "藤",
    "3010": "藓",
    "3011": "藏",
    "3012": "藉",
    "3013": "薄",
    "3014": "蕾",
    "3015": "蕴",
    "3016": "蔽",
    "3017": "蔓",
    "3018": "蔑",
    "3019": "蓝",
    "3020": "蓄",
    "3021": "蒸",
    "3022": "蒙",
    "3023": "蒂",
    "3024": "葵",
    "3025": "葬",
    "3026": "著",
    "3027": "落",
    "3028": "萨",
    "3029": "萦",
    "3030": "营",
    "3031": "萝",
    "3032": "萌",
    "3033": "菲",
    "3034": "菌",
    "3035": "莽",
    "3036": "获",
    "3037": "莲",
    "3038": "莱",
    "3039": "莫",
    "3040": "莎",
    "3041": "莉",
    "3042": "荷",
    "3043": "药",
    "3044": "荫",
    "3045": "荣",
    "3046": "荡",
    "3047": "荒",
    "3048": "草",
    "3049": "荆",
    "3050": "茬",
    "3051": "茫",
    "3052": "茨",
    "3053": "茧",
    "3054": "茎",
    "3055": "茉",
    "3056": "范",
    "3057": "英",
    "3058": "苦",
    "3059": "若",
    "3060": "苟",
    "3061": "苗",
    "3062": "苔",
    "3063": "苏",
    "3064": "苍",
    "3065": "芽",
    "3066": "芳",
    "3067": "花",
    "3068": "芜",
    "3069": "芒",
    "3070": "节",
    "3071": "艾",
    "3072": "艺",
    "3073": "艳",
    "3074": "色",
    "3075": "艰",
    "3076": "良",
    "3077": "艘",
    "3078": "船",
    "3079": "舰",
    "3080": "般",
    "3081": "航",
    "3082": "舟",
    "3083": "舞",
    "3084": "舒",
    "3085": "致",
    "3086": "至",
    "3087": "臭",
    "3088": "自",
    "3089": "臣",
    "3090": "臂",
    "3091": "膨",
    "3092": "膝",
    "3093": "膛",
    "3094": "膀",
    "3095": "腿",
    "3096": "腾",
    "3097": "腱",
    "3098": "腰",
    "3099": "腥",
    "3100": "腔",
    "3101": "腐",
    "3102": "脾",
    "3103": "脸",
    "3104": "脱",
    "3105": "脚",
    "3106": "脑",
    "3107": "脏",
    "3108": "脊",
    "3109": "脉",
    "3110": "脆",
    "3111": "能",
    "3112": "胸",
    "3113": "胡",
    "3114": "胞",
    "3115": "胜",
    "3116": "胚",
    "3117": "胖",
    "3118": "胎",
    "3119": "背",
    "3120": "胆",
    "3121": "胁",
    "3122": "胀",
    "3123": "肿",
    "3124": "肺",
    "3125": "育",
    "3126": "肯",
    "3127": "肩",
    "3128": "肥",
    "3129": "肤",
    "3130": "肢",
    "3131": "股",
    "3132": "肠",
    "3133": "肚",
    "3134": "肌",
    "3135": "肉",
    "3136": "肆",
    "3137": "聪",
    "3138": "聚",
    "3139": "联",
    "3140": "职",
    "3141": "聋",
    "3142": "聊",
    "3143": "耻",
    "3144": "耸",
    "3145": "耳",
    "3146": "耗",
    "3147": "耕",
    "3148": "耐",
    "3149": "而",
    "3150": "者",
    "3151": "考",
    "3152": "老",
    "3153": "耀",
    "3154": "翼",
    "3155": "翻",
    "3156": "翱",
    "3157": "翩",
    "3158": "翠",
    "3159": "翔",
    "3160": "翅",
    "3161": "羽",
    "3162": "群",
    "3163": "羞",
    "3164": "美",
    "3165": "羁",
    "3166": "置",
    "3167": "罪",
    "3168": "罩",
    "3169": "罚",
    "3170": "罗",
    "3171": "罕",
    "3172": "网",
    "3173": "罐",
    "3174": "缺",
    "3175": "缴",
    "3176": "缭",
    "3177": "缩",
    "3178": "缠",
    "3179": "缝",
    "3180": "缚",
    "3181": "缘",
    "3182": "编",
    "3183": "缔",
    "3184": "缓",
    "3185": "绿",
    "3186": "绽",
    "3187": "综",
    "3188": "绵",
    "3189": "维",
    "3190": "绳",
    "3191": "续",
    "3192": "绪",
    "3193": "继",
    "3194": "统",
    "3195": "绝",
    "3196": "络",
    "3197": "给",
    "3198": "绘",
    "3199": "绕",
    "3200": "结",
    "3201": "绑",
    "3202": "经",
    "3203": "绊",
    "3204": "终",
    "3205": "织",
    "3206": "细",
    "3207": "组",
    "3208": "练",
    "3209": "线",
    "3210": "纽",
    "3211": "纺",
    "3212": "纹",
    "3213": "纸",
    "3214": "纷",
    "3215": "纵",
    "3216": "纳",
    "3217": "纱",
    "3218": "纯",
    "3219": "纭",
    "3220": "纪",
    "3221": "级",
    "3222": "约",
    "3223": "红",
    "3224": "纠",
    "3225": "繁",
    "3226": "累",
    "3227": "紫",
    "3228": "紧",
    "3229": "索",
    "3230": "素",
    "3231": "系",
    "3232": "糟",
    "3233": "糙",
    "3234": "糕",
    "3235": "糊",
    "3236": "精",
    "3237": "粹",
    "3238": "粘",
    "3239": "粗",
    "3240": "粒",
    "3241": "粉",
    "3242": "类",
    "3243": "米",
    "3244": "籍",
    "3245": "簸",
    "3246": "篷",
    "3247": "篡",
    "3248": "篝",
    "3249": "篇",
    "3250": "箴",
    "3251": "箭",
    "3252": "管",
    "3253": "算",
    "3254": "箍",
    "3255": "简",
    "3256": "签",
    "3257": "策",
    "3258": "答",
    "3259": "筑",
    "3260": "筋",
    "3261": "等",
    "3262": "笼",
    "3263": "第",
    "3264": "符",
    "3265": "笞",
    "3266": "笔",
    "3267": "笑",
    "3268": "端",
    "3269": "竭",
    "3270": "童",
    "3271": "竟",
    "3272": "竞",
    "3273": "站",
    "3274": "立",
    "3275": "窥",
    "3276": "窟",
    "3277": "窝",
    "3278": "窗",
    "3279": "窒",
    "3280": "窍",
    "3281": "窄",
    "3282": "窃",
    "3283": "突",
    "3284": "穿",
    "3285": "空",
    "3286": "穹",
    "3287": "穷",
    "3288": "究",
    "3289": "穴",
    "3290": "稼",
    "3291": "稳",
    "3292": "稠",
    "3293": "稔",
    "3294": "稍",
    "3295": "程",
    "3296": "稀",
    "3297": "秽",
    "3298": "移",
    "3299": "称",
    "3300": "积",
    "3301": "秩",
    "3302": "秧",
    "3303": "秘",
    "3304": "秒",
    "3305": "科",
    "3306": "种",
    "3307": "秋",
    "3308": "私",
    "3309": "秀",
    "3310": "离",
    "3311": "福",
    "3312": "禁",
    "3313": "祸",
    "3314": "祭",
    "3315": "祟",
    "3316": "神",
    "3317": "祝",
    "3318": "祖",
    "3319": "祈",
    "3320": "祀",
    "3321": "社",
    "3322": "礼",
    "3323": "示",
    "3324": "礁",
    "3325": "磨",
    "3326": "磁",
    "3327": "碾",
    "3328": "碰",
    "3329": "碧",
    "3330": "碑",
    "3331": "碎",
    "3332": "碍",
    "3333": "确",
    "3334": "硬",
    "3335": "硝",
    "3336": "硕",
    "3337": "础",
    "3338": "砺",
    "3339": "砸",
    "3340": "破",
    "3341": "砚",
    "3342": "研",
    "3343": "砍",
    "3344": "砂",
    "3345": "矿",
    "3346": "石",
    "3347": "矮",
    "3348": "短",
    "3349": "矫",
    "3350": "矩",
    "3351": "知",
    "3352": "矢",
    "3353": "矛",
    "3354": "瞬",
    "3355": "瞥",
    "3356": "瞄",
    "3357": "睿",
    "3358": "睹",
    "3359": "睨",
    "3360": "睥",
    "3361": "睡",
    "3362": "睛",
    "3363": "睐",
    "3364": "睁",
    "3365": "着",
    "3366": "眼",
    "3367": "眷",
    "3368": "眩",
    "3369": "眠",
    "3370": "真",
    "3371": "看",
    "3372": "眉",
    "3373": "眀",
    "3374": "盾",
    "3375": "相",
    "3376": "直",
    "3377": "盲",
    "3378": "盯",
    "3379": "目",
    "3380": "盟",
    "3381": "盛",
    "3382": "盘",
    "3383": "盗",
    "3384": "盖",
    "3385": "盔",
    "3386": "监",
    "3387": "盐",
    "3388": "益",
    "3389": "盈",
    "3390": "盆",
    "3391": "皮",
    "3392": "皇",
    "3393": "的",
    "3394": "百",
    "3395": "白",
    "3396": "登",
    "3397": "癫",
    "3398": "癖",
    "3399": "瘴",
    "3400": "瘫",
    "3401": "瘦",
    "3402": "瘤",
    "3403": "瘟",
    "3404": "痹",
    "3405": "痰",
    "3406": "痛",
    "3407": "痕",
    "3408": "痍",
    "3409": "症",
    "3410": "病",
    "3411": "疾",
    "3412": "疼",
    "3413": "疲",
    "3414": "疯",
    "3415": "疮",
    "3416": "疫",
    "3417": "疣",
    "3418": "疚",
    "3419": "疗",
    "3420": "疑",
    "3421": "疏",
    "3422": "疆",
    "3423": "番",
    "3424": "略",
    "3425": "畜",
    "3426": "留",
    "3427": "畔",
    "3428": "畏",
    "3429": "界",
    "3430": "畅",
    "3431": "画",
    "3432": "男",
    "3433": "电",
    "3434": "甲",
    "3435": "由",
    "3436": "田",
    "3437": "甩",
    "3438": "用",
    "3439": "生",
    "3440": "甚",
    "3441": "甘",
    "3442": "甄",
    "3443": "瓶",
    "3444": "瓦",
    "3445": "璨",
    "3446": "璃",
    "3447": "璀",
    "3448": "瑟",
    "3449": "瑞",
    "3450": "琼",
    "3451": "琐",
    "3452": "理",
    "3453": "球",
    "3454": "珠",
    "3455": "珍",
    "3456": "玻",
    "3457": "现",
    "3458": "环",
    "3459": "玩",
    "3460": "玛",
    "3461": "王",
    "3462": "玉",
    "3463": "率",
    "3464": "玄",
    "3465": "獸",
    "3466": "猾",
    "3467": "猴",
    "3468": "献",
    "3469": "猫",
    "3470": "猪",
    "3471": "猩",
    "3472": "猜",
    "3473": "猛",
    "3474": "猎",
    "3475": "狼",
    "3476": "狱",
    "3477": "狰",
    "3478": "狮",
    "3479": "狭",
    "3480": "独",
    "3481": "狡",
    "3482": "狠",
    "3483": "狞",
    "3484": "狙",
    "3485": "狗",
    "3486": "狈",
    "3487": "狂",
    "3488": "犹",
    "3489": "状",
    "3490": "犯",
    "3491": "犀",
    "3492": "牺",
    "3493": "特",
    "3494": "牵",
    "3495": "牲",
    "3496": "物",
    "3497": "牧",
    "3498": "牢",
    "3499": "牛",
    "3500": "牙",
    "3501": "牒",
    "3502": "牌",
    "3503": "版",
    "3504": "片",
    "3505": "爽",
    "3506": "父",
    "3507": "爱",
    "3508": "爬",
    "3509": "爪",
    "3510": "爆",
    "3511": "燥",
    "3512": "燎",
    "3513": "燃",
    "3514": "熠",
    "3515": "熟",
    "3516": "熔",
    "3517": "熊",
    "3518": "熄",
    "3519": "煽",
    "3520": "照",
    "3521": "煌",
    "3522": "然",
    "3523": "焰",
    "3524": "焦",
    "3525": "焚",
    "3526": "热",
    "3527": "烬",
    "3528": "烧",
    "3529": "烦",
    "3530": "烤",
    "3531": "烟",
    "3532": "烙",
    "3533": "烈",
    "3534": "烂",
    "3535": "烁",
    "3536": "炽",
    "3537": "炼",
    "3538": "点",
    "3539": "炸",
    "3540": "炮",
    "3541": "炫",
    "3542": "炙",
    "3543": "炘",
    "3544": "炎",
    "3545": "炉",
    "3546": "灿",
    "3547": "灾",
    "3548": "灼",
    "3549": "灶",
    "3550": "灵",
    "3551": "灰",
    "3552": "灯",
    "3553": "灭",
    "3554": "火",
    "3555": "灌",
    "3556": "濒",
    "3557": "激",
    "3558": "澜",
    "3559": "潮",
    "3560": "潭",
    "3561": "潜",
    "3562": "漫",
    "3563": "漪",
    "3564": "漩",
    "3565": "漠",
    "3566": "演",
    "3567": "漏",
    "3568": "漆",
    "3569": "漂",
    "3570": "滴",
    "3571": "滩",
    "3572": "滥",
    "3573": "满",
    "3574": "滞",
    "3575": "滚",
    "3576": "滔",
    "3577": "滑",
    "3578": "滋",
    "3579": "溯",
    "3580": "溢",
    "3581": "溜",
    "3582": "源",
    "3583": "溅",
    "3584": "溃",
    "3585": "湿",
    "3586": "湾",
    "3587": "湮",
    "3588": "湛",
    "3589": "湖",
    "3590": "渺",
    "3591": "游",
    "3592": "渴",
    "3593": "港",
    "3594": "温",
    "3595": "渝",
    "3596": "渗",
    "3597": "渔",
    "3598": "渐",
    "3599": "渊",
    "3600": "清",
    "3601": "添",
    "3602": "淹",
    "3603": "混",
    "3604": "深",
    "3605": "淬",
    "3606": "淤",
    "3607": "淡",
    "3608": "淘",
    "3609": "淌",
    "3610": "淀",
    "3611": "液",
    "3612": "涯",
    "3613": "涩",
    "3614": "涤",
    "3615": "涡",
    "3616": "涟",
    "3617": "涕",
    "3618": "涌",
    "3619": "涉",
    "3620": "消",
    "3621": "涅",
    "3622": "涂",
    "3623": "浸",
    "3624": "海",
    "3625": "浴",
    "3626": "浮",
    "3627": "浪",
    "3628": "浩",
    "3629": "浓",
    "3630": "浑",
    "3631": "济",
    "3632": "测",
    "3633": "浊",
    "3634": "浇",
    "3635": "浆",
    "3636": "浅",
    "3637": "流",
    "3638": "派",
    "3639": "洼",
    "3640": "活",
    "3641": "洲",
    "3642": "洪",
    "3643": "津",
    "3644": "洞",
    "3645": "洛",
    "3646": "洗",
    "3647": "洒",
    "3648": "洋",
    "3649": "洁",
    "3650": "泽",
    "3651": "泻",
    "3652": "泯",
    "3653": "泪",
    "3654": "注",
    "3655": "泣",
    "3656": "波",
    "3657": "泡",
    "3658": "泛",
    "3659": "法",
    "3660": "泌",
    "3661": "泊",
    "3662": "泉",
    "3663": "泄",
    "3664": "沿",
    "3665": "治",
    "3666": "油",
    "3667": "沸",
    "3668": "河",
    "3669": "沦",
    "3670": "没",
    "3671": "沟",
    "3672": "沛",
    "3673": "沙",
    "3674": "沐",
    "3675": "沌",
    "3676": "沉",
    "3677": "沃",
    "3678": "汽",
    "3679": "汲",
    "3680": "汰",
    "3681": "污",
    "3682": "池",
    "3683": "江",
    "3684": "汗",
    "3685": "汐",
    "3686": "汉",
    "3687": "汇",
    "3688": "求",
    "3689": "汁",
    "3690": "汀",
    "3691": "永",
    "3692": "水",
    "3693": "气",
    "3694": "民",
    "3695": "毯",
    "3696": "毫",
    "3697": "毛",
    "3698": "毙",
    "3699": "毕",
    "3700": "比",
    "3701": "毒",
    "3702": "每",
    "3703": "母",
    "3704": "毅",
    "3705": "毁",
    "3706": "殿",
    "3707": "段",
    "3708": "殴",
    "3709": "殖",
    "3710": "残",
    "3711": "殊",
    "3712": "殇",
    "3713": "殆",
    "3714": "殁",
    "3715": "歼",
    "3716": "死",
    "3717": "歹",
    "3718": "歧",
    "3719": "武",
    "3720": "步",
    "3721": "此",
    "3722": "正",
    "3723": "止",
    "3724": "歌",
    "3725": "欺",
    "3726": "欲",
    "3727": "欧",
    "3728": "欣",
    "3729": "欢",
    "3730": "次",
    "3731": "橡",
    "3732": "横",
    "3733": "模",
    "3734": "榴",
    "3735": "榨",
    "3736": "概",
    "3737": "楚",
    "3738": "植",
    "3739": "椅",
    "3740": "棵",
    "3741": "森",
    "3742": "棘",
    "3743": "棒",
    "3744": "棍",
    "3745": "检",
    "3746": "械",
    "3747": "梭",
    "3748": "梦",
    "3749": "梅",
    "3750": "桶",
    "3751": "桩",
    "3752": "档",
    "3753": "桌",
    "3754": "案",
    "3755": "格",
    "3756": "根",
    "3757": "核",
    "3758": "样",
    "3759": "校",
    "3760": "栗",
    "3761": "树",
    "3762": "栏",
    "3763": "标",
    "3764": "柴",
    "3765": "柱",
    "3766": "查",
    "3767": "柔",
    "3768": "染",
    "3769": "某",
    "3770": "柄",
    "3771": "枷",
    "3772": "架",
    "3773": "枯",
    "3774": "枫",
    "3775": "枪",
    "3776": "枝",
    "3777": "果",
    "3778": "枚",
    "3779": "林",
    "3780": "析",
    "3781": "构",
    "3782": "极",
    "3783": "板",
    "3784": "松",
    "3785": "杰",
    "3786": "杯",
    "3787": "杨",
    "3788": "来",
    "3789": "条",
    "3790": "束",
    "3791": "杜",
    "3792": "杖",
    "3793": "村",
    "3794": "材",
    "3795": "杆",
    "3796": "权",
    "3797": "杂",
    "3798": "杀",
    "3799": "朽",
    "3800": "机",
    "3801": "朵",
    "3802": "术",
    "3803": "本",
    "3804": "末",
    "3805": "未",
    "3806": "木",
    "3807": "期",
    "3808": "朝",
    "3809": "望",
    "3810": "朗",
    "3811": "服",
    "3812": "朋",
    "3813": "有",
    "3814": "月",
    "3815": "最",
    "3816": "替",
    "3817": "曾",
    "3818": "曼",
    "3819": "更",
    "3820": "曲",
    "3821": "曜",
    "3822": "曙",
    "3823": "暴",
    "3824": "暮",
    "3825": "暗",
    "3826": "暇",
    "3827": "暂",
    "3828": "智",
    "3829": "晶",
    "3830": "晴",
    "3831": "晰",
    "3832": "景",
    "3833": "普",
    "3834": "晨",
    "3835": "晦",
    "3836": "晚",
    "3837": "晕",
    "3838": "晓",
    "3839": "晋",
    "3840": "晃",
    "3841": "显",
    "3842": "昵",
    "3843": "是",
    "3844": "昭",
    "3845": "春",
    "3846": "映",
    "3847": "星",
    "3848": "昔",
    "3849": "易",
    "3850": "昏",
    "3851": "明",
    "3852": "昆",
    "3853": "昂",
    "3854": "时",
    "3855": "旱",
    "3856": "早",
    "3857": "旧",
    "3858": "旦",
    "3859": "日",
    "3860": "既",
    "3861": "无",
    "3862": "旗",
    "3863": "族",
    "3864": "旋",
    "3865": "旅",
    "3866": "旁",
    "3867": "施",
    "3868": "方",
    "3869": "新",
    "3870": "斯",
    "3871": "断",
    "3872": "斩",
    "3873": "斧",
    "3874": "斥",
    "3875": "料",
    "3876": "斗",
    "3877": "斑",
    "3878": "文",
    "3879": "整",
    "3880": "敲",
    "3881": "数",
    "3882": "敬",
    "3883": "散",
    "3884": "敢",
    "3885": "敞",
    "3886": "教",
    "3887": "敕",
    "3888": "救",
    "3889": "敏",
    "3890": "敌",
    "3891": "效",
    "3892": "故",
    "3893": "政",
    "3894": "放",
    "3895": "攻",
    "3896": "改",
    "3897": "收",
    "3898": "支",
    "3899": "攒",
    "3900": "擒",
    "3901": "擎",
    "3902": "操",
    "3903": "擅",
    "3904": "撼",
    "3905": "撰",
    "3906": "播",
    "3907": "撬",
    "3908": "撞",
    "3909": "撕",
    "3910": "撒",
    "3911": "摸",
    "3912": "摩",
    "3913": "摧",
    "3914": "摔",
    "3915": "摊",
    "3916": "摇",
    "3917": "摆",
    "3918": "摄",
    "3919": "摁",
    "3920": "携",
    "3921": "搭",
    "3922": "搜",
    "3923": "搏",
    "3924": "搅",
    "3925": "援",
    "3926": "揭",
    "3927": "握",
    "3928": "插",
    "3929": "提",
    "3930": "描",
    "3931": "揉",
    "3932": "掷",
    "3933": "措",
    "3934": "掩",
    "3935": "推",
    "3936": "控",
    "3937": "接",
    "3938": "探",
    "3939": "掠",
    "3940": "掘",
    "3941": "排",
    "3942": "掐",
    "3943": "掌",
    "3944": "掉",
    "3945": "授",
    "3946": "掀",
    "3947": "捷",
    "3948": "捶",
    "3949": "据",
    "3950": "捣",
    "3951": "换",
    "3952": "损",
    "3953": "捞",
    "3954": "捕",
    "3955": "捉",
    "3956": "捆",
    "3957": "挽",
    "3958": "挺",
    "3959": "振",
    "3960": "挫",
    "3961": "挨",
    "3962": "挥",
    "3963": "挤",
    "3964": "挣",
    "3965": "挡",
    "3966": "挠",
    "3967": "挚",
    "3968": "挖",
    "3969": "挑",
    "3970": "按",
    "3971": "指",
    "3972": "挂",
    "3973": "持",
    "3974": "拿",
    "3975": "拾",
    "3976": "拽",
    "3977": "拼",
    "3978": "拳",
    "3979": "拯",
    "3980": "括",
    "3981": "择",
    "3982": "拦",
    "3983": "拥",
    "3984": "拢",
    "3985": "拜",
    "3986": "招",
    "3987": "拖",
    "3988": "拔",
    "3989": "拓",
    "3990": "拒",
    "3991": "拉",
    "3992": "拆",
    "3993": "担",
    "3994": "拂",
    "3995": "抽",
    "3996": "押",
    "3997": "抹",
    "3998": "抵",
    "3999": "抱",
    "4000": "抬",
    "4001": "披",
    "4002": "报",
    "4003": "护",
    "4004": "抛",
    "4005": "抚",
    "4006": "折",
    "4007": "抗",
    "4008": "抖",
    "4009": "投",
    "4010": "抓",
    "4011": "抑",
    "4012": "把",
    "4013": "抉",
    "4014": "技",
    "4015": "承",
    "4016": "找",
    "4017": "扼",
    "4018": "扶",
    "4019": "扳",
    "4020": "扰",
    "4021": "扯",
    "4022": "扭",
    "4023": "扬",
    "4024": "扫",
    "4025": "扩",
    "4026": "执",
    "4027": "托",
    "4028": "扔",
    "4029": "打",
    "4030": "扒",
    "4031": "扑",
    "4032": "扎",
    "4033": "才",
    "4034": "手",
    "4035": "扉",
    "4036": "扇",
    "4037": "扁",
    "4038": "所",
    "4039": "房",
    "4040": "户",
    "4041": "戴",
    "4042": "戮",
    "4043": "截",
    "4044": "战",
    "4045": "或",
    "4046": "戒",
    "4047": "我",
    "4048": "成",
    "4049": "戏",
    "4050": "戈",
    "4051": "懑",
    "4052": "懈",
    "4053": "憾",
    "4054": "憎",
    "4055": "慰",
    "4056": "慧",
    "4057": "慢",
    "4058": "慎",
    "4059": "慌",
    "4060": "慈",
    "4061": "愿",
    "4062": "愧",
    "4063": "愤",
    "4064": "感",
    "4065": "愚",
    "4066": "意",
    "4067": "愉",
    "4068": "愈",
    "4069": "惹",
    "4070": "想",
    "4071": "惫",
    "4072": "惩",
    "4073": "惨",
    "4074": "惧",
    "4075": "惠",
    "4076": "惕",
    "4077": "惑",
    "4078": "惊",
    "4079": "情",
    "4080": "悼",
    "4081": "悲",
    "4082": "悯",
    "4083": "悬",
    "4084": "您",
    "4085": "悦",
    "4086": "患",
    "4087": "悠",
    "4088": "悟",
    "4089": "悚",
    "4090": "悔",
    "4091": "悉",
    "4092": "悄",
    "4093": "恼",
    "4094": "恶",
    "4095": "息",
    "4096": "恪",
    "4097": "恩",
    "4098": "恨",
    "4099": "恣",
    "4100": "恢",
    "4101": "恒",
    "4102": "恐",
    "4103": "恋",
    "4104": "总",
    "4105": "怯",
    "4106": "怪",
    "4107": "怨",
    "4108": "性",
    "4109": "急",
    "4110": "思",
    "4111": "怜",
    "4112": "怖",
    "4113": "怕",
    "4114": "怒",
    "4115": "怎",
    "4116": "态",
    "4117": "怀",
    "4118": "忽",
    "4119": "念",
    "4120": "忱",
    "4121": "快",
    "4122": "忧",
    "4123": "忠",
    "4124": "忙",
    "4125": "忘",
    "4126": "志",
    "4127": "忍",
    "4128": "忌",
    "4129": "忆",
    "4130": "必",
    "4131": "心",
    "4132": "德",
    "4133": "微",
    "4134": "循",
    "4135": "御",
    "4136": "徜",
    "4137": "徘",
    "4138": "得",
    "4139": "徒",
    "4140": "徐",
    "4141": "律",
    "4142": "徊",
    "4143": "徉",
    "4144": "很",
    "4145": "待",
    "4146": "径",
    "4147": "征",
    "4148": "往",
    "4149": "彼",
    "4150": "彻",
    "4151": "役",
    "4152": "影",
    "4153": "彩",
    "4154": "形",
    "4155": "彗",
    "4156": "录",
    "4157": "当",
    "4158": "归",
    "4159": "强",
    "4160": "弹",
    "4161": "弱",
    "4162": "弩",
    "4163": "弧",
    "4164": "弥",
    "4165": "张",
    "4166": "弟",
    "4167": "弗",
    "4168": "引",
    "4169": "弓",
    "4170": "式",
    "4171": "弋",
    "4172": "弄",
    "4173": "弃",
    "4174": "异",
    "4175": "开",
    "4176": "建",
    "4177": "廷",
    "4178": "延",
    "4179": "廓",
    "4180": "康",
    "4181": "庭",
    "4182": "座",
    "4183": "度",
    "4184": "废",
    "4185": "庞",
    "4186": "府",
    "4187": "庙",
    "4188": "店",
    "4189": "底",
    "4190": "应",
    "4191": "库",
    "4192": "序",
    "4193": "床",
    "4194": "庇",
    "4195": "庆",
    "4196": "庄",
    "4197": "广",
    "4198": "幽",
    "4199": "幼",
    "4200": "幻",
    "4201": "幸",
    "4202": "并",
    "4203": "年",
    "4204": "平",
    "4205": "干",
    "4206": "幕",
    "4207": "幅",
    "4208": "帽",
    "4209": "常",
    "4210": "帮",
    "4211": "席",
    "4212": "带",
    "4213": "帝",
    "4214": "帘",
    "4215": "帕",
    "4216": "希",
    "4217": "师",
    "4218": "帆",
    "4219": "帅",
    "4220": "布",
    "4221": "市",
    "4222": "巷",
    "4223": "巴",
    "4224": "已",
    "4225": "己",
    "4226": "差",
    "4227": "巫",
    "4228": "巨",
    "4229": "巧",
    "4230": "左",
    "4231": "工",
    "4232": "巢",
    "4233": "巡",
    "4234": "州",
    "4235": "川",
    "4236": "巍",
    "4237": "巅",
    "4238": "嵌",
    "4239": "崽",
    "4240": "崩",
    "4241": "崛",
    "4242": "崖",
    "4243": "崔",
    "4244": "崎",
    "4245": "崇",
    "4246": "峰",
    "4247": "峭",
    "4248": "峙",
    "4249": "岸",
    "4250": "岭",
    "4251": "岩",
    "4252": "岛",
    "4253": "岗",
    "4254": "岖",
    "4255": "岁",
    "4256": "屿",
    "4257": "屹",
    "4258": "山",
    "4259": "履",
    "4260": "屠",
    "4261": "属",
    "4262": "展",
    "4263": "屑",
    "4264": "屏",
    "4265": "屎",
    "4266": "屋",
    "4267": "屈",
    "4268": "居",
    "4269": "层",
    "4270": "局",
    "4271": "尾",
    "4272": "尽",
    "4273": "尼",
    "4274": "尺",
    "4275": "尸",
    "4276": "就",
    "4277": "尤",
    "4278": "尝",
    "4279": "尚",
    "4280": "尘",
    "4281": "尖",
    "4282": "尔",
    "4283": "少",
    "4284": "小",
    "4285": "尊",
    "4286": "将",
    "4287": "射",
    "4288": "封",
    "4289": "寿",
    "4290": "导",
    "4291": "寻",
    "4292": "寺",
    "4293": "对",
    "4294": "寸",
    "4295": "寥",
    "4296": "寡",
    "4297": "察",
    "4298": "寒",
    "4299": "寐",
    "4300": "富",
    "4301": "密",
    "4302": "寄",
    "4303": "寂",
    "4304": "宿",
    "4305": "宽",
    "4306": "容",
    "4307": "家",
    "4308": "宴",
    "4309": "害",
    "4310": "宰",
    "4311": "宫",
    "4312": "室",
    "4313": "宣",
    "4314": "客",
    "4315": "审",
    "4316": "宠",
    "4317": "实",
    "4318": "宝",
    "4319": "定",
    "4320": "宙",
    "4321": "官",
    "4322": "宗",
    "4323": "完",
    "4324": "安",
    "4325": "守",
    "4326": "宇",
    "4327": "宅",
    "4328": "它",
    "4329": "宁",
    "4330": "孽",
    "4331": "孺",
    "4332": "孵",
    "4333": "孩",
    "4334": "学",
    "4335": "孤",
    "4336": "季",
    "4337": "孙",
    "4338": "存",
    "4339": "字",
    "4340": "孕",
    "4341": "孔",
    "4342": "子",
    "4343": "嬉",
    "4344": "嫩",
    "4345": "嫉",
    "4346": "媚",
    "4347": "媒",
    "4348": "婴",
    "4349": "婪",
    "4350": "婉",
    "4351": "婆",
    "4352": "娴",
    "4353": "娱",
    "4354": "娜",
    "4355": "娇",
    "4356": "娅",
    "4357": "威",
    "4358": "姿",
    "4359": "姑",
    "4360": "姐",
    "4361": "始",
    "4362": "姆",
    "4363": "妻",
    "4364": "妹",
    "4365": "妮",
    "4366": "妥",
    "4367": "妙",
    "4368": "妖",
    "4369": "妒",
    "4370": "妈",
    "4371": "妇",
    "4372": "妄",
    "4373": "如",
    "4374": "好",
    "4375": "她",
    "4376": "奴",
    "4377": "女",
    "4378": "奥",
    "4379": "套",
    "4380": "奖",
    "4381": "奔",
    "4382": "契",
    "4383": "奏",
    "4384": "奎",
    "4385": "奋",
    "4386": "奉",
    "4387": "奈",
    "4388": "奇",
    "4389": "夺",
    "4390": "夷",
    "4391": "头",
    "4392": "失",
    "4393": "央",
    "4394": "夭",
    "4395": "夫",
    "4396": "太",
    "4397": "天",
    "4398": "大",
    "4399": "够",
    "4400": "夜",
    "4401": "多",
    "4402": "外",
    "4403": "夕",
    "4404": "夏",
    "4405": "复",
    "4406": "备",
    "4407": "处",
    "4408": "壳",
    "4409": "声",
    "4410": "壮",
    "4411": "士",
    "4412": "壤",
    "4413": "壕",
    "4414": "壑",
    "4415": "壁",
    "4416": "墨",
    "4417": "墟",
    "4418": "增",
    "4419": "墙",
    "4420": "墓",
    "4421": "境",
    "4422": "填",
    "4423": "塞",
    "4424": "塔",
    "4425": "塑",
    "4426": "塌",
    "4427": "堵",
    "4428": "堪",
    "4429": "堡",
    "4430": "堕",
    "4431": "堆",
    "4432": "堂",
    "4433": "基",
    "4434": "培",
    "4435": "域",
    "4436": "城",
    "4437": "埋",
    "4438": "埃",
    "4439": "垮",
    "4440": "垫",
    "4441": "垠",
    "4442": "垒",
    "4443": "型",
    "4444": "垂",
    "4445": "坦",
    "4446": "坤",
    "4447": "坡",
    "4448": "坠",
    "4449": "坟",
    "4450": "坚",
    "4451": "块",
    "4452": "坑",
    "4453": "坐",
    "4454": "坏",
    "4455": "坍",
    "4456": "坊",
    "4457": "均",
    "4458": "场",
    "4459": "地",
    "4460": "在",
    "4461": "圣",
    "4462": "土",
    "4463": "圈",
    "4464": "圆",
    "4465": "图",
    "4466": "国",
    "4467": "固",
    "4468": "围",
    "4469": "困",
    "4470": "园",
    "4471": "团",
    "4472": "因",
    "4473": "回",
    "4474": "四",
    "4475": "囚",
    "4476": "囊",
    "4477": "嚣",
    "4478": "嚎",
    "4479": "噬",
    "4480": "噩",
    "4481": "器",
    "4482": "嘶",
    "4483": "嘴",
    "4484": "嘲",
    "4485": "嘛",
    "4486": "嘘",
    "4487": "嘉",
    "4488": "嗫",
    "4489": "嗥",
    "4490": "嗤",
    "4491": "嗣",
    "4492": "嗜",
    "4493": "嗖",
    "4494": "嗓",
    "4495": "喻",
    "4496": "喷",
    "4497": "喝",
    "4498": "喜",
    "4499": "喙",
    "4500": "喘",
    "4501": "喊",
    "4502": "喉",
    "4503": "喇",
    "4504": "善",
    "4505": "喂",
    "4506": "商",
    "4507": "啃",
    "4508": "唱",
    "4509": "唰",
    "4510": "唯",
    "4511": "唬",
    "4512": "唤",
    "4513": "唠",
    "4514": "唐",
    "4515": "哼",
    "4516": "哲",
    "4517": "哮",
    "4518": "哭",
    "4519": "哪",
    "4520": "哨",
    "4521": "哥",
    "4522": "哝",
    "4523": "哑",
    "4524": "响",
    "4525": "哈",
    "4526": "品",
    "4527": "哀",
    "4528": "咳",
    "4529": "咬",
    "4530": "咫",
    "4531": "咧",
    "4532": "咤",
    "4533": "咙",
    "4534": "咕",
    "4535": "咒",
    "4536": "和",
    "4537": "咆",
    "4538": "命",
    "4539": "呼",
    "4540": "呻",
    "4541": "呵",
    "4542": "味",
    "4543": "周",
    "4544": "呢",
    "4545": "呛",
    "4546": "员",
    "4547": "告",
    "4548": "呆",
    "4549": "吼",
    "4550": "吻",
    "4551": "吹",
    "4552": "吸",
    "4553": "吵",
    "4554": "启",
    "4555": "听",
    "4556": "含",
    "4557": "吧",
    "4558": "否",
    "4559": "吟",
    "4560": "吞",
    "4561": "君",
    "4562": "吓",
    "4563": "向",
    "4564": "吐",
    "4565": "吏",
    "4566": "后",
    "4567": "名",
    "4568": "同",
    "4569": "吉",
    "4570": "合",
    "4571": "各",
    "4572": "吃",
    "4573": "叹",
    "4574": "司",
    "4575": "号",
    "4576": "叶",
    "4577": "右",
    "4578": "史",
    "4579": "台",
    "4580": "可",
    "4581": "召",
    "4582": "叫",
    "4583": "只",
    "4584": "叨",
    "4585": "另",
    "4586": "句",
    "4587": "古",
    "4588": "口",
    "4589": "叠",
    "4590": "叛",
    "4591": "变",
    "4592": "受",
    "4593": "取",
    "4594": "叔",
    "4595": "发",
    "4596": "反",
    "4597": "双",
    "4598": "友",
    "4599": "及",
    "4600": "叉",
    "4601": "又",
    "4602": "参",
    "4603": "去",
    "4604": "原",
    "4605": "厚",
    "4606": "厌",
    "4607": "压",
    "4608": "厉",
    "4609": "历",
    "4610": "厅",
    "4611": "厄",
    "4612": "卷",
    "4613": "卵",
    "4614": "却",
    "4615": "即",
    "4616": "危",
    "4617": "印",
    "4618": "卫",
    "4619": "卡",
    "4620": "占",
    "4621": "卜",
    "4622": "博",
    "4623": "南",
    "4624": "卖",
    "4625": "单",
    "4626": "卓",
    "4627": "卒",
    "4628": "卑",
    "4629": "协",
    "4630": "华",
    "4631": "半",
    "4632": "午",
    "4633": "升",
    "4634": "千",
    "4635": "十",
    "4636": "匿",
    "4637": "医",
    "4638": "区",
    "4639": "匹",
    "4640": "匪",
    "4641": "匠",
    "4642": "北",
    "4643": "化",
    "4644": "匕",
    "4645": "包",
    "4646": "匀",
    "4647": "勿",
    "4648": "勾",
    "4649": "勤",
    "4650": "勒",
    "4651": "勉",
    "4652": "勇",
    "4653": "势",
    "4654": "劳",
    "4655": "劲",
    "4656": "励",
    "4657": "劫",
    "4658": "努",
    "4659": "助",
    "4660": "动",
    "4661": "劣",
    "4662": "务",
    "4663": "加",
    "4664": "功",
    "4665": "办",
    "4666": "劝",
    "4667": "力",
    "4668": "劈",
    "4669": "割",
    "4670": "副",
    "4671": "剪",
    "4672": "剩",
    "4673": "剧",
    "4674": "剥",
    "4675": "剑",
    "4676": "前",
    "4677": "削",
    "4678": "剃",
    "4679": "剂",
    "4680": "刻",
    "4681": "刺",
    "4682": "刷",
    "4683": "制",
    "4684": "到",
    "4685": "刮",
    "4686": "别",
    "4687": "利",
    "4688": "判",
    "4689": "初",
    "4690": "创",
    "4691": "刚",
    "4692": "则",
    "4693": "列",
    "4694": "划",
    "4695": "刑",
    "4696": "切",
    "4697": "分",
    "4698": "刃",
    "4699": "刀",
    "4700": "凿",
    "4701": "击",
    "4702": "出",
    "4703": "凶",
    "4704": "凳",
    "4705": "凰",
    "4706": "凯",
    "4707": "凭",
    "4708": "凤",
    "4709": "凡",
    "4710": "几",
    "4711": "凝",
    "4712": "凑",
    "4713": "减",
    "4714": "凌",
    "4715": "凋",
    "4716": "凉",
    "4717": "准",
    "4718": "净",
    "4719": "冻",
    "4720": "冷",
    "4721": "况",
    "4722": "决",
    "4723": "冲",
    "4724": "冰",
    "4725": "冬",
    "4726": "冥",
    "4727": "冤",
    "4728": "冠",
    "4729": "农",
    "4730": "军",
    "4731": "写",
    "4732": "冒",
    "4733": "再",
    "4734": "内",
    "4735": "兽",
    "4736": "养",
    "4737": "兹",
    "4738": "典",
    "4739": "具",
    "4740": "其",
    "4741": "兵",
    "4742": "兴",
    "4743": "关",
    "4744": "共",
    "4745": "兰",
    "4746": "六",
    "4747": "公",
    "4748": "全",
    "4749": "入",
    "4750": "兜",
    "4751": "免",
    "4752": "克",
    "4753": "光",
    "4754": "先",
    "4755": "兆",
    "4756": "充",
    "4757": "兄",
    "4758": "元",
    "4759": "允",
    "4760": "儿",
    "4761": "儡",
    "4762": "僻",
    "4763": "僵",
    "4764": "僧",
    "4765": "像",
    "4766": "傻",
    "4767": "傲",
    "4768": "催",
    "4769": "傅",
    "4770": "傀",
    "4771": "偿",
    "4772": "偷",
    "4773": "偶",
    "4774": "健",
    "4775": "停",
    "4776": "做",
    "4777": "偏",
    "4778": "偎",
    "4779": "假",
    "4780": "倾",
    "4781": "值",
    "4782": "倦",
    "4783": "借",
    "4784": "候",
    "4785": "倒",
    "4786": "倍",
    "4787": "俱",
    "4788": "俯",
    "4789": "修",
    "4790": "俩",
    "4791": "信",
    "4792": "保",
    "4793": "俘",
    "4794": "俗",
    "4795": "俑",
    "4796": "促",
    "4797": "便",
    "4798": "侵",
    "4799": "侧",
    "4800": "侦",
    "4801": "侥",
    "4802": "侣",
    "4803": "侠",
    "4804": "依",
    "4805": "供",
    "4806": "侍",
    "4807": "例",
    "4808": "使",
    "4809": "佳",
    "4810": "佤",
    "4811": "佣",
    "4812": "你",
    "4813": "作",
    "4814": "佛",
    "4815": "余",
    "4816": "何",
    "4817": "体",
    "4818": "佑",
    "4819": "住",
    "4820": "低",
    "4821": "位",
    "4822": "但",
    "4823": "伽",
    "4824": "似",
    "4825": "伸",
    "4826": "伴",
    "4827": "估",
    "4828": "伪",
    "4829": "伦",
    "4830": "伤",
    "4831": "传",
    "4832": "伟",
    "4833": "会",
    "4834": "伙",
    "4835": "优",
    "4836": "众",
    "4837": "休",
    "4838": "伐",
    "4839": "伏",
    "4840": "伊",
    "4841": "企",
    "4842": "仿",
    "4843": "份",
    "4844": "任",
    "4845": "价",
    "4846": "件",
    "4847": "仲",
    "4848": "仰",
    "4849": "们",
    "4850": "仪",
    "4851": "以",
    "4852": "令",
    "4853": "代",
    "4854": "仙",
    "4855": "付",
    "4856": "仗",
    "4857": "他",
    "4858": "仔",
    "4859": "从",
    "4860": "仍",
    "4861": "介",
    "4862": "今",
    "4863": "仇",
    "4864": "仆",
    "4865": "仅",
    "4866": "仁",
    "4867": "什",
    "4868": "亿",
    "4869": "人",
    "4870": "亲",
    "4871": "亮",
    "4872": "享",
    "4873": "亨",
    "4874": "产",
    "4875": "亦",
    "4876": "交",
    "4877": "亡",
    "4878": "些",
    "4879": "亚",
    "4880": "井",
    "4881": "五",
    "4882": "互",
    "4883": "云",
    "4884": "于",
    "4885": "二",
    "4886": "事",
    "4887": "争",
    "4888": "予",
    "4889": "了",
    "4890": "乾",
    "4891": "乱",
    "4892": "买",
    "4893": "书",
    "4894": "乡",
    "4895": "习",
    "4896": "也",
    "4897": "乞",
    "4898": "九",
    "4899": "乘",
    "4900": "乐",
    "4901": "乏",
    "4902": "乎",
    "4903": "乍",
    "4904": "乌",
    "4905": "之",
    "4906": "义",
    "4907": "么",
    "4908": "久",
    "4909": "乃",
    "4910": "举",
    "4911": "丽",
    "4912": "主",
    "4913": "为",
    "4914": "丹",
    "4915": "丸",
    "4916": "临",
    "4917": "串",
    "4918": "丰",
    "4919": "中",
    "4920": "个",
    "4921": "丧",
    "4922": "严",
    "4923": "两",
    "4924": "丢",
    "4925": "丝",
    "4926": "东",
    "4927": "丛",
    "4928": "业",
    "4929": "丘",
    "4930": "世",
    "4931": "且",
    "4932": "专",
    "4933": "丑",
    "4934": "丐",
    "4935": "与",
    "4936": "不",
    "4937": "下",
    "4938": "上",
    "4939": "三",
    "4940": "丈",
    "4941": "万",
    "4942": "七",
    "4943": "丁",
    "4944": "一",
    "4945": "。",
    "4946": "、",
    "4947": "…",
    "4948": "”",
    "4949": "“",
    "4950": "—",
    "4951": "·",
    "4952": "y",
    "4953": "x",
    "4954": "w",
    "4955": "v",
    "4956": "u",
    "4957": "t",
    "4958": "s",
    "4959": "r",
    "4960": "q",
    "4961": "p",
    "4962": "o",
    "4963": "n",
    "4964": "m",
    "4965": "l",
    "4966": "k",
    "4967": "j",
    "4968": "i",
    "4969": "h",
    "4970": "g",
    "4971": "f",
    "4972": "e",
    "4973": "d",
    "4974": "c",
    "4975": "b",
    "4976": "a",
    "4977": "_",
    "4978": ">",
    "4979": "=",
    "4980": "<",
    "4981": "9",
    "4982": "8",
    "4983": "7",
    "4984": "6",
    "4985": "5",
    "4986": "4",
    "4987": "3",
    "4988": "2",
    "4989": "1",
    "4990": "0",
    "4991": "/",
    "4992": ".",
    "4993": "-",
    "4994": ",",
    "4995": "+",
    "4996": "'",
    "4997": "%",
    "4998": "#",
    "4999": "\""
  },
  "merges": {
    "，,<": [
      "，",
      "</w>"
    ],
    "。,<": [
      "。",
      "</w>"
    ],
    "：,<": [
      "：",
      "</w>"
    ],
    "技,能": [
      "技能",
      "1"
    ],
    "%,<": [
      "%",
      "</w>"
    ],
    "描,述": [
      "描述",
      "</w>"
    ],
    ",,<": [
      ",",
      "</w>"
    ],
    "伤,害": [
      "伤害",
      "加上"
    ],
    "<,<": [
      "<",
      "</w>"
    ],
    ">,<": [
      ">",
      "</w>"
    ],
    "r,<": [
      "r",
      "</w>"
    ],
    "攻,击": [
      "攻击",
      "伤害"
    ],
    "一,个": [
      "一个",
      "敌人"
    ],
    "造,成": [
      "造成",
      "眩晕和"
    ],
    "b,r": [
      "b",
      "r</w>"
    ],
    "敌,人": [
      "敌人的",
      "移动速度</w>"
    ],
    "单,位": [
      "单位",
      "</w>"
    ],
    "英,雄": [
      "英雄",
      "</w>"
    ],
    "目,标": [
      "目标的",
      "移动速度</w>"
    ],
    "他,们": [
      "他们",
      "</w>"
    ],
    "敌,方": [
      "敌方单位",
      "或"
    ],
    "他,的": [
      "他的",
      "力量"
    ],
    "持,续": [
      "持续",
      "施法"
    ],
    "自,己": [
      "自己",
      "是"
    ],
    "所,有": [
      "所有",
      "的"
    ],
    "受,到": [
      "受到",
      "伤害"
    ],
    "o,n": [
      "on",
      "_"
    ],
    "—,<": [
      "—",
      "</w>"
    ],
    "速,度": [
      "速",
      "度"
    ],
    "移,动": [
      "移动和",
      "攻击速度</w>"
    ],
    "时,间": [
      "时间越",
      "长</w>"
    ],
    "魔,法": [
      "魔法",
      "值</w>"
    ],
    "效,果": [
      "效果",
      "</w>"
    ],
    "2,<": [
      "2",
      "</w>"
    ],
    "事,<": [
      "事",
      "</w>"
    ],
    "获,得": [
      "获得",
      "移动速度加成</w>"
    ],
    "生,命": [
      "生命值",
      "低"
    ],
    "t,i": [
      "ti",
      "ve_"
    ],
    "故,事": [
      "故",
      "事"
    ],
    "1,<": [
      "1",
      "</w>"
    ],
    "名,<": [
      "名",
      "</w>"
    ],
    "3,<": [
      "3",
      "</w>"
    ],
    "4,<": [
      "4",
      "</w>"
    ],
    "背,景": [
      "背景",
      "故事</w>"
    ],
    "中,<": [
      "中",
      "</w>"
    ],
    "可,以": [
      "可以",
      "使用"
    ],
    "力,量": [
      "力量",
      "的"
    ],
    "r,a": [
      "rang",
      "e</w>"
    ],
    "后,<": [
      "后",
      "</w>"
    ],
    "t,<": [
      "t",
      "</w>"
    ],
    "并,且": [
      "并且",
      "移动速度"
    ],
    "的,敌": [
      "的敌人",
      "造成"
    ],
    "范,围": [
      "范围内",
      "的敌人"
    ],
    "减,速": [
      "减速和",
      "伤害</w>"
    ],
    "了,<": [
      "了",
      "</w>"
    ],
    "附,近": [
      "附近",
      "</w>"
    ],
    "眩,晕": [
      "眩晕",
      "并"
    ],
    "_,d": [
      "_damage_",
      "pct</w>"
    ],
    "时,<": [
      "时",
      "</w>"
    ],
    "距,离": [
      "距离",
      "</w>"
    ],
    "加,成": [
      "加成",
      "</w>"
    ],
    "5,<": [
      "5",
      "</w>"
    ],
    "额,外": [
      "额外",
      "伤害</w>"
    ],
    "一,定": [
      "一定百分比",
      "的伤害</w>"
    ],
    "施,放": [
      "施放",
      "技能"
    ],
    "区,域": [
      "区域内",
      "的敌人"
    ],
    "秒,<": [
      "秒",
      "</w>"
    ],
    "人,<": [
      "人",
      "</w>"
    ],
    "世,界": [
      "世界",
      "上"
    ],
    "力,<": [
      "力",
      "</w>"
    ],
    "u,r": [
      "uration",
      "</w>"
    ],
    "驱,散": [
      "驱散",
      "效果</w>"
    ],
    "提,升": [
      "提升",
      "了"
    ],
    "死,亡": [
      "死亡之神",
      "的"
    ],
    "召,唤": [
      "召唤",
      "</w>"
    ],
    "都,会": [
      "都",
      "会"
    ],
    "的,<": [
      "的",
      "</w>"
    ],
    "大,的": [
      "大",
      "的"
    ],
    "自,身": [
      "自身",
      "</w>"
    ],
    "这,个": [
      "这个",
      "世界"
    ],
    "、,<": [
      "、",
      "</w>"
    ],
    "无,法": [
      "无法",
      "攻击</w>"
    ],
    "施,法": [
      "施法",
      "</w>"
    ],
    "开,始": [
      "开",
      "始"
    ],
    "如,果": [
      "如果",
      "你"
    ],
    "灵,魂": [
      "灵魂",
      "的"
    ],
    "e,<": [
      "e",
      "</w>"
    ],
    "来,<": [
      "来",
      "</w>"
    ],
    "她,的": [
      "她",
      "的"
    ],
    "f,o": [
      "f",
      "ont</w>"
    ],
    "状,态": [
      "状态",
      "抗性"
    ],
    "能,量": [
      "能量",
      "</w>"
    ],
    "没,有": [
      "没有",
      "人"
    ],
    "然,而": [
      "然而",
      "</w>"
    ],
    "降,低": [
      "降低",
      "</w>"
    ],
    "周,围": [
      "周围",
      "所有"
    ],
    "o,l": [
      "ol",
      "or</w>"
    ],
    "元,素": [
      "元素",
      "</w>"
    ],
    "击,<": [
      "击",
      "</w>"
    ],
    "中,的": [
      "中",
      "的"
    ],
    "m,a": [
      "man",
      "a"
    ],
    "l,i": [
      "li",
      "ty"
    ],
    "现,在": [
      "现在",
      "的"
    ],
    "s,t": [
      "st",
      "eal"
    ],
    "者,<": [
      "者",
      "</w>"
    ],
    "同,时": [
      "同",
      "时</w>"
    ],
    "那,些": [
      "那",
      "些"
    ],
    "黑,暗": [
      "黑暗贤",
      "者"
    ],
    "r,e": [
      "re",
      "shol"
    ],
    "发,现": [
      "发现",
      "自己"
    ],
    "/,<": [
      "/",
      "</w>"
    ],
    "了,一": [
      "了",
      "一个"
    ],
    "友,方": [
      "友方英雄",
      "</w>"
    ],
    "但,是": [
      "但是",
      "</w>"
    ],
    "治,疗": [
      "治疗",
      "效果</w>"
    ],
    "u,s": [
      "u",
      "s"
    ],
    "',<": [
      "'",
      "</w>"
    ],
    "上,<": [
      "上",
      "</w>"
    ],
    "的,力": [
      "的力量",
      "</w>"
    ],
    "的,伤": [
      "的",
      "伤害</w>"
    ],
    "恶,魔": [
      "恶",
      "魔"
    ],
    "只,有": [
      "只",
      "有"
    ],
    "存,在": [
      "存在",
      "于"
    ],
    "e,_": [
      "e",
      "_"
    ],
    "战,斗": [
      "战斗",
      "</w>"
    ],
    "创,造": [
      "创造",
      "一个"
    ],
    "护,甲": [
      "护甲",
      "和"
    ],
    "每,次": [
      "每次",
      "攻击"
    ],
    "形,态": [
      "形态",
      "</w>"
    ],
    "出,一": [
      "出一",
      "道"
    ],
    "物,<": [
      "物",
      "</w>"
    ],
    "其,他": [
      "其他",
      "人"
    ],
    "已,经": [
      "已",
      "经"
    ],
    "到,了": [
      "到",
      "了"
    ],
    "下,<": [
      "下",
      "</w>"
    ],
    "任,何": [
      "任",
      "何"
    ],
    "分,比": [
      "分",
      "比"
    ],
    "百,分": [
      "百",
      "分比"
    ],
    "友,军": [
      "友军",
      "</w>"
    ],
    "骑,士": [
      "骑士",
      "的"
    ],
    ".,<": [
      ".",
      "</w>"
    ],
    "这,些": [
      "这",
      "些"
    ],
    "使,用": [
      "使用",
      "</w>"
    ],
    "能,够": [
      "能",
      "够"
    ],
    "法,师": [
      "法师",
      "</w>"
    ],
    "守,卫": [
      "守卫",
      "</w>"
    ],
    "作,用": [
      "作用",
      "</w>"
    ],
    "减,缓": [
      "减缓其",
      "移动速度</w>"
    ],
    "去,<": [
      "去",
      "</w>"
    ],
    "“,<": [
      "“",
      "</w>"
    ],
    "”,<": [
      "”",
      "</w>"
    ],
    "然,后": [
      "然",
      "后"
    ],
    "的,攻": [
      "的攻击",
      "力</w>"
    ],
    "恢,复": [
      "恢复",
      "</w>"
    ],
    "-,<": [
      "-",
      "</w>"
    ],
    "经,过": [
      "经过",
      "</w>"
    ],
    "拥,有": [
      "拥",
      "有"
    ],
    "风,暴": [
      "风暴",
      "之灵"
    ],
    "释,放": [
      "释放",
      "出"
    ],
    "幻,象": [
      "幻象",
      "</w>"
    ],
    "暗,影": [
      "暗影",
      "之"
    ],
    "作,为": [
      "作",
      "为"
    ],
    "一,样": [
      "一样",
      "</w>"
    ],
    "a,b": [
      "abilitychannel",
      "time</w>"
    ],
    "一,次": [
      "一次",
      "</w>"
    ],
    "地,<": [
      "地",
      "</w>"
    ],
    "将,会": [
      "将",
      "会"
    ],
    "上,的": [
      "上",
      "的"
    ],
    "最,大": [
      "最大生命值",
      "的"
    ],
    "成,为": [
      "成为",
      "了"
    ],
    "成,了": [
      "成",
      "了"
    ],
    "来,的": [
      "来",
      "的"
    ],
    "人,的": [
      "人",
      "的"
    ],
    "击,中": [
      "击",
      "中的"
    ],
    "不,会": [
      "不",
      "会"
    ],
    "就,是": [
      "就",
      "是"
    ],
    "期,间": [
      "期",
      "间"
    ],
    "里,<": [
      "里",
      "</w>"
    ],
    "提,供": [
      "提",
      "供"
    ],
    "施,加": [
      "施加",
      "一个"
    ],
    "a,c": [
      "ac",
      "tive_"
    ],
    "o,r": [
      "o",
      "r"
    ],
    "a,m": [
      "a",
      "mag"
    ],
    "地,点": [
      "地",
      "点"
    ],
    "进,入": [
      "进",
      "入"
    ],
    "战,士": [
      "战士",
      "</w>"
    ],
    "就,会": [
      "就",
      "会"
    ],
    "的,单": [
      "的单位",
      "</w>"
    ],
    "手,<": [
      "手",
      "</w>"
    ],
    "根,据": [
      "根",
      "据"
    ],
    "进,行": [
      "进",
      "行"
    ],
    "i,n": [
      "interval",
      "</w>"
    ],
    "一,切": [
      "一切",
      "</w>"
    ],
    "最,后": [
      "最后",
      "一"
    ],
    "型,<": [
      "型",
      "</w>"
    ],
    "t,y": [
      "t",
      "y"
    ],
    "不,过": [
      "不",
      "过"
    ],
    "树,木": [
      "树木",
      "</w>"
    ],
    "之,灵": [
      "之",
      "灵"
    ],
    "c,o": [
      "co",
      "unt</w>"
    ],
    "=,<": [
      "=",
      "</w>"
    ],
    "#,<": [
      "#",
      "</w>"
    ],
    "随,着": [
      "随",
      "着"
    ],
    "产,生": [
      "产",
      "生"
    ],
    "来,自": [
      "来",
      "自"
    ],
    "冷,却": [
      "冷却",
      "时间"
    ],
    "传,送": [
      "传送",
      "门"
    ],
    "a,n": [
      "an",
      "nel"
    ],
    "等,级": [
      "等级",
      "</w>"
    ],
    "精,灵": [
      "精灵",
      "</w>"
    ],
    "面,<": [
      "面",
      "</w>"
    ],
    "类,型": [
      "类",
      "型</w>"
    ],
    "加,<": [
      "加",
      "</w>"
    ],
    "的,魔": [
      "的魔法",
      "值</w>"
    ],
    "在,他": [
      "在",
      "他的"
    ],
    "身,体": [
      "身",
      "体"
    ],
    "p,e": [
      "per",
      "cen"
    ],
    "致,命": [
      "致命一",
      "击</w>"
    ],
    "部,分": [
      "部",
      "分"
    ],
    "直,到": [
      "直到",
      "他"
    ],
    "a,l": [
      "al",
      "l"
    ],
    "长,<": [
      "长",
      "</w>"
    ],
    "短,暂": [
      "短暂",
      "眩晕</w>"
    ],
    "e,l": [
      "ela",
      "y</w>"
    ],
    "因,为": [
      "因",
      "为"
    ],
    "术,<": [
      "术",
      "</w>"
    ],
    "他,<": [
      "他",
      "</w>"
    ],
    "自,然": [
      "自",
      "然"
    ],
    "抗,性": [
      "抗",
      "性"
    ],
    "在,一": [
      "在一",
      "起</w>"
    ],
    "身,<": [
      "身",
      "</w>"
    ],
    "只,要": [
      "只",
      "要"
    ],
    "于,<": [
      "于",
      "</w>"
    ],
    "制,造": [
      "制造",
      "一个"
    ],
    "力,的": [
      "力",
      "的"
    ],
    "将,其": [
      "将",
      "其"
    ],
    "森,林": [
      "森林",
      "的"
    ],
    "子,<": [
      "子",
      "</w>"
    ],
    "他,是": [
      "他",
      "是"
    ],
    "爆,炸": [
      "爆炸",
      "</w>"
    ],
    "宇,宙": [
      "宇宙",
      "的"
    ],
    "的,所": [
      "的所有",
      "单位"
    ],
    "d,u": [
      "du",
      "ction"
    ],
    "i,l": [
      "il",
      "l"
    ],
    "大,<": [
      "大",
      "</w>"
    ],
    "；,<": [
      "；",
      "</w>"
    ],
    "t,_": [
      "t",
      "_"
    ],
    "沉,默": [
      "沉默",
      "术士"
    ],
    "d,i": [
      "di",
      "us"
    ],
    "飞,行": [
      "飞行",
      "</w>"
    ],
    "强,大": [
      "强",
      "大"
    ],
    "在,这": [
      "在这",
      "片"
    ],
    "每,个": [
      "每",
      "个"
    ],
    "毁,灭": [
      "毁灭",
      "性的"
    ],
    "摧,毁": [
      "摧",
      "毁"
    ],
    "火,焰": [
      "火焰",
      "</w>"
    ],
    "瘟,疫": [
      "瘟疫",
      "</w>"
    ],
    "使,其": [
      "使",
      "其"
    ],
    "它,的": [
      "它",
      "的"
    ],
    "被,动": [
      "被",
      "动"
    ],
    "巫,师": [
      "巫",
      "师"
    ],
    "结,束": [
      "结束",
      "后"
    ],
    "的,灵": [
      "的灵魂",
      "</w>"
    ],
    "还,有": [
      "还",
      "有"
    ],
    "物,理": [
      "物理",
      "伤害</w>"
    ],
    "向,目": [
      "向目标",
      "区域"
    ],
    "o,w": [
      "ow",
      "n"
    ],
    "性,的": [
      "性",
      "的"
    ],
    "视,野": [
      "视野",
      "</w>"
    ],
    "一,名": [
      "一",
      "名"
    ],
    "杀,死": [
      "杀死",
      "</w>"
    ],
    "之,间": [
      "之",
      "间"
    ],
    "当,前": [
      "当前",
      "生命值"
    ],
    "控,制": [
      "控制",
      "</w>"
    ],
    "战,争": [
      "战争",
      "</w>"
    ],
    "位,置": [
      "位置",
      "</w>"
    ],
    "为,<": [
      "为",
      "</w>"
    ],
    "这,样": [
      "这样",
      "的"
    ],
    "需,要": [
      "需",
      "要"
    ],
    "完,全": [
      "完",
      "全"
    ],
    "通,过": [
      "通",
      "过"
    ],
    "大,地": [
      "大",
      "地</w>"
    ],
    "p,c": [
      "pc",
      "t</w>"
    ],
    "一,直": [
      "一直",
      "在"
    ],
    "术,士": [
      "术士",
      "</w>"
    ],
    "刺,客": [
      "刺",
      "客"
    ],
    "…,<": [
      "…",
      "</w>"
    ],
    "即,使": [
      "即使",
      "是"
    ],
    "意,识": [
      "意识",
      "到"
    ],
    "古,老": [
      "古老",
      "的"
    ],
    "具,有": [
      "具",
      "有"
    ],
    "0,<": [
      "0",
      "</w>"
    ],
    "动,<": [
      "动",
      "</w>"
    ],
    "还,是": [
      "还",
      "是"
    ],
    "发,射": [
      "发",
      "射"
    ],
    "方,向": [
      "方",
      "向"
    ],
    "以,及": [
      "以",
      "及"
    ],
    "恐,怖": [
      "恐怖利",
      "刃"
    ],
    "击,退": [
      "击退",
      "</w>"
    ],
    "时,候": [
      "时",
      "候"
    ],
    "邪,恶": [
      "邪恶",
      "</w>"
    ],
    "年,轻": [
      "年轻",
      "的"
    ],
    "场,<": [
      "场",
      "</w>"
    ],
    "得,到": [
      "得到",
      "提升</w>"
    ],
    "的,人": [
      "的",
      "人</w>"
    ],
    "心,<": [
      "心",
      "</w>"
    ],
    "虚,无": [
      "虚无",
      "之境"
    ],
    "下,的": [
      "下",
      "的"
    ],
    "新,的": [
      "新",
      "的"
    ],
    "u,l": [
      "u",
      "l"
    ],
    "弱,驱": [
      "弱",
      "驱散</w>"
    ],
    "a,r": [
      "ar",
      "g"
    ],
    "o,o": [
      "ool",
      "down"
    ],
    "都,是": [
      "都",
      "是"
    ],
    "混,沌": [
      "混沌",
      "</w>"
    ],
    "c,h": [
      "ch",
      "ance</w>"
    ],
    "神,圣": [
      "神圣",
      "的"
    ],
    "着,<": [
      "着",
      "</w>"
    ],
    "幻,影": [
      "幻影",
      "长矛手"
    ],
    "或,者": [
      "或",
      "者"
    ],
    "食,人": [
      "食人魔魔法",
      "师"
    ],
    "？,<": [
      "？",
      "</w>"
    ],
    "深,渊": [
      "深渊",
      "</w>"
    ],
    "逐,渐": [
      "逐",
      "渐"
    ],
    "负,面": [
      "负面",
      "状态"
    ],
    "诅,咒": [
      "诅咒",
      "</w>"
    ],
    "减,少": [
      "减少",
      "</w>"
    ],
    "在,那": [
      "在那",
      "里"
    ],
    "出,了": [
      "出",
      "了"
    ],
    "束,缚": [
      "束缚",
      "</w>"
    ],
    "师,<": [
      "师",
      "</w>"
    ],
    "物,质": [
      "物",
      "质"
    ],
    "说,<": [
      "说",
      "</w>"
    ],
    "b,o": [
      "bonus",
      "_"
    ],
    "什,么": [
      "什么",
      "</w>"
    ],
    "失,去": [
      "失去",
      "的"
    ],
    "不,可": [
      "不可",
      "思议"
    ],
    "碎,片": [
      "碎片",
      "</w>"
    ],
    "其,中": [
      "其",
      "中的"
    ],
    "不,再": [
      "不",
      "再"
    ],
    "消,失": [
      "消失",
      "</w>"
    ],
    "e,n": [
      "e",
      "n"
    ],
    "增,加": [
      "增",
      "加"
    ],
    "波,<": [
      "波",
      "</w>"
    ],
    "不,能": [
      "不",
      "能"
    ],
    "普,通": [
      "普通",
      "攻击"
    ],
    "最,终": [
      "最",
      "终"
    ],
    "取,决": [
      "取决",
      "于</w>"
    ],
    "祈,求": [
      "祈求",
      "者"
    ],
    "带,着": [
      "带",
      "着"
    ],
    "入,了": [
      "入",
      "了"
    ],
    "基,础": [
      "基",
      "础"
    ],
    "恐,惧": [
      "恐惧",
      "</w>"
    ],
    "痛,苦": [
      "痛苦女",
      "王"
    ],
    "之,神": [
      "之",
      "神"
    ],
    "非,英": [
      "非",
      "英雄单位"
    ],
    "在,目": [
      "在目标",
      "地点"
    ],
    "n,g": [
      "n",
      "g"
    ],
    "军,队": [
      "军队",
      "</w>"
    ],
    "拉,克": [
      "拉",
      "克"
    ],
    "（,<": [
      "（",
      "</w>"
    ],
    "）,<": [
      "）",
      "</w>"
    ],
    "每,秒": [
      "每",
      "秒"
    ],
    "是,一": [
      "是",
      "一名"
    ],
    "起,<": [
      "起",
      "</w>"
    ],
    "会,被": [
      "会",
      "被"
    ],
    "最,近": [
      "最近",
      "的"
    ],
    "物,品": [
      "物品",
      "和"
    ],
    "为,了": [
      "为",
      "了"
    ],
    "的,一": [
      "的",
      "一定百分比</w>"
    ],
    "年,的": [
      "年",
      "的"
    ],
    "一,种": [
      "一",
      "种"
    ],
    "改,变": [
      "改",
      "变"
    ],
    "法,术": [
      "法",
      "术</w>"
    ],
    "提,高": [
      "提",
      "高"
    ],
    "也,会": [
      "也",
      "会"
    ],
    "位,面": [
      "位",
      "面</w>"
    ],
    "寻,找": [
      "寻",
      "找"
    ],
    "将,被": [
      "将",
      "被"
    ],
    "吞,噬": [
      "吞噬",
      "</w>"
    ],
    "不,断": [
      "不",
      "断"
    ],
    "发,动": [
      "发",
      "动"
    ],
    "光,<": [
      "光",
      "</w>"
    ],
    "变,成": [
      "变",
      "成"
    ],
    "天,<": [
      "天",
      "</w>"
    ],
    "一,片": [
      "一",
      "片"
    ],
    "对,目": [
      "对",
      "目标"
    ],
    "弹,<": [
      "弹",
      "</w>"
    ],
    "命,运": [
      "命运",
      "</w>"
    ],
    "打,击": [
      "打",
      "击</w>"
    ],
    "暂,时": [
      "暂",
      "时"
    ],
    "林,克": [
      "林",
      "克"
    ],
    "克,林": [
      "克林克",
      "兹"
    ],
    "离,开": [
      "离开",
      "</w>"
    ],
    "不,是": [
      "不",
      "是"
    ],
    "一,些": [
      "一",
      "些"
    ],
    "野,兽": [
      "野",
      "兽"
    ],
    "们,的": [
      "们",
      "的"
    ],
    "面,前": [
      "面",
      "前"
    ],
    "生,物": [
      "生",
      "物</w>"
    ],
    "卓,尔": [
      "卓尔",
      "游侠"
    ],
    "变,体": [
      "变体",
      "精灵"
    ],
    "残,岩": [
      "残",
      "岩"
    ],
    "分,裂": [
      "分裂",
      "</w>"
    ],
    "巨,魔": [
      "巨魔",
      "战将"
    ],
    "格,纳": [
      "格",
      "纳"
    ],
    "也,是": [
      "也",
      "是"
    ],
    "形,<": [
      "形",
      "</w>"
    ],
    "再,次": [
      "再",
      "次"
    ],
    "让,他": [
      "让",
      "他"
    ],
    "复,仇": [
      "复仇",
      "之"
    ],
    "e,d": [
      "e",
      "d"
    ],
    "的,传": [
      "的传",
      "说</w>"
    ],
    "他,对": [
      "他对",
      "自己的"
    ],
    "u,n": [
      "un",
      "t</w>"
    ],
    "过,<": [
      "过",
      "</w>"
    ],
    "点,<": [
      "点",
      "</w>"
    ],
    "对,敌": [
      "对敌方单位",
      "造成"
    ],
    "智,慧": [
      "智慧",
      "</w>"
    ],
    "曾,经": [
      "曾",
      "经"
    ],
    "流,<": [
      "流",
      "</w>"
    ],
    "出,现": [
      "出",
      "现"
    ],
    "箭,矢": [
      "箭矢",
      "</w>"
    ],
    "骷,髅": [
      "骷髅",
      "兵"
    ],
    "a,t": [
      "attack",
      "_"
    ],
    "穿,过": [
      "穿",
      "过"
    ],
    "终,于": [
      "终",
      "于</w>"
    ],
    "出,生": [
      "出",
      "生"
    ],
    "球,<": [
      "球",
      "</w>"
    ],
    "回,复": [
      "回",
      "复"
    ],
    "有,一": [
      "有一定",
      "概率"
    ],
    "敏,捷": [
      "敏捷",
      "</w>"
    ],
    "半,人": [
      "半人",
      "马"
    ],
    "生,活": [
      "生活",
      "</w>"
    ],
    "道,<": [
      "道",
      "</w>"
    ],
    "魂,<": [
      "魂",
      "</w>"
    ],
    "m,u": [
      "multiplie",
      "r</w>"
    ],
    "m,o": [
      "mov",
      "e"
    ],
    "缠,绕": [
      "缠绕",
      "</w>"
    ],
    "护,盾": [
      "护盾",
      "</w>"
    ],
    "碰,到": [
      "碰到",
      "的"
    ],
    "建,筑": [
      "建",
      "筑"
    ],
    "都,将": [
      "都",
      "将"
    ],
    "消,耗": [
      "消",
      "耗"
    ],
    "带,来": [
      "带",
      "来的"
    ],
    "到,达": [
      "到",
      "达"
    ],
    "跳,跃": [
      "跳跃",
      "</w>"
    ],
    "无,尽": [
      "无尽",
      "的"
    ],
    "值,<": [
      "值",
      "</w>"
    ],
    "克,斯": [
      "克",
      "斯"
    ],
    "隐,身": [
      "隐身",
      "状态</w>"
    ],
    "的,光": [
      "的光",
      "芒"
    ],
    "次,攻": [
      "次",
      "攻击"
    ],
    "几,率": [
      "几",
      "率"
    ],
    "生,<": [
      "生",
      "</w>"
    ],
    "对,其": [
      "对",
      "其"
    ],
    "族,人": [
      "族",
      "人"
    ],
    "变,得": [
      "变",
      "得"
    ],
    "女,神": [
      "女",
      "神"
    ],
    "天,怒": [
      "天怒",
      "法师"
    ],
    "连,接": [
      "连接",
      "</w>"
    ],
    "预,言": [
      "预",
      "言"
    ],
    "东,西": [
      "东西",
      "</w>"
    ],
    "所,在": [
      "所",
      "在"
    ],
    "前,方": [
      "前",
      "方"
    ],
    "王,<": [
      "王",
      "</w>"
    ],
    "身,边": [
      "身边",
      "</w>"
    ],
    "唯,一": [
      "唯一",
      "的"
    ],
    "队,友": [
      "队",
      "友"
    ],
    "破,坏": [
      "破",
      "坏"
    ],
    "_,t": [
      "_t",
      "ooltip</w>"
    ],
    "s,p": [
      "s",
      "p"
    ],
    "短,时": [
      "短时间",
      "内"
    ],
    "处,于": [
      "处",
      "于"
    ],
    "生,的": [
      "生",
      "的"
    ],
    "战,场": [
      "战",
      "场</w>"
    ],
    "空,<": [
      "空",
      "</w>"
    ],
    "巨,大": [
      "巨",
      "大的"
    ],
    "多,数": [
      "多",
      "数"
    ],
    "先,知": [
      "先",
      "知"
    ],
    "i,s": [
      "i",
      "s"
    ],
    "的,时": [
      "的时候",
      "</w>"
    ],
    "在,地": [
      "在",
      "地"
    ],
    "里,面": [
      "里",
      "面"
    ],
    "王,的": [
      "王",
      "的"
    ],
    "吸,血": [
      "吸血",
      "效果</w>"
    ],
    "最,多": [
      "最多",
      "</w>"
    ],
    "体,<": [
      "体",
      "</w>"
    ],
    "处,<": [
      "处",
      "</w>"
    ],
    "部,落": [
      "部",
      "落"
    ],
    "的,地": [
      "的地",
      "方</w>"
    ],
    "是,<": [
      "是",
      "</w>"
    ],
    "长,矛": [
      "长矛",
      "手"
    ],
    "撕,裂": [
      "撕",
      "裂"
    ],
    "秘,密": [
      "秘",
      "密"
    ],
    "国,的": [
      "国",
      "的"
    ],
    "闪,电": [
      "闪电",
      "</w>"
    ],
    "整,个": [
      "整",
      "个"
    ],
    "冰,霜": [
      "冰",
      "霜"
    ],
    "编,织": [
      "编织",
      "者"
    ],
    "艾,欧": [
      "艾",
      "欧"
    ],
    "酒,仙": [
      "酒",
      "仙"
    ],
    "有,人": [
      "有",
      "人"
    ],
    "化,<": [
      "化",
      "</w>"
    ],
    "现,实": [
      "现",
      "实"
    ],
    "过,程": [
      "过程",
      "中"
    ],
    "只,能": [
      "只",
      "能"
    ],
    "外,<": [
      "外",
      "</w>"
    ],
    "法,<": [
      "法",
      "</w>"
    ],
    "秒,后": [
      "秒",
      "后"
    ],
    "基,于": [
      "基",
      "于"
    ],
    "对,非": [
      "对非英雄单位",
      "造成</w>"
    ],
    "c,r": [
      "cre",
      "ep"
    ],
    "出,<": [
      "出",
      "</w>"
    ],
    "的,神": [
      "的",
      "神"
    ],
    "保,护": [
      "保",
      "护"
    ],
    "人,都": [
      "人",
      "都"
    ],
    "吸,收": [
      "吸",
      "收"
    ],
    "还,将": [
      "还",
      "将"
    ],
    "s,h": [
      "sh",
      "ol"
    ],
    "自,动": [
      "自",
      "动"
    ],
    "还,会": [
      "还",
      "会"
    ],
    "军,团": [
      "军团",
      "指挥官"
    ],
    "冲,击": [
      "冲击",
      "波</w>"
    ],
    "咒,语": [
      "咒语",
      "</w>"
    ],
    "烈,焰": [
      "烈",
      "焰"
    ],
    "承,受": [
      "承",
      "受"
    ],
    "很,快": [
      "很快",
      "就"
    ],
    "尽,管": [
      "尽",
      "管"
    ],
    "剧,毒": [
      "剧",
      "毒"
    ],
    "仪,式": [
      "仪式",
      "</w>"
    ],
    "击,杀": [
      "击",
      "杀"
    ],
    "由,于": [
      "由",
      "于"
    ],
    "影,响": [
      "影",
      "响"
    ],
    "在,持": [
      "在",
      "持续时间内"
    ],
    "永,远": [
      "永",
      "远"
    ],
    "落,地": [
      "落地",
      "时"
    ],
    "隐,藏": [
      "隐",
      "藏"
    ],
    "卫,士": [
      "卫",
      "士"
    ],
    "域,<": [
      "域",
      "</w>"
    ],
    "灰,烬": [
      "灰烬",
      "之灵"
    ],
    "脉,冲": [
      "脉冲",
      "</w>"
    ],
    "幽,鬼": [
      "幽",
      "鬼"
    ],
    "魔,导": [
      "魔",
      "导"
    ],
    "米,波": [
      "米",
      "波"
    ],
    "\",<": [
      "\"",
      "</w>"
    ],
    "风,<": [
      "风",
      "</w>"
    ],
    "伟,大": [
      "伟",
      "大的"
    ],
    "他,将": [
      "他",
      "将"
    ],
    "他,从": [
      "他",
      "从"
    ],
    "他,被": [
      "他",
      "被"
    ],
    "e,p": [
      "e",
      "p"
    ],
    "身,上": [
      "身",
      "上的"
    ],
    "认,为": [
      "认",
      "为</w>"
    ],
    "免,疫": [
      "免",
      "疫"
    ],
    "家,族": [
      "家",
      "族"
    ],
    "的,大": [
      "的",
      "大"
    ],
    "行,<": [
      "行",
      "</w>"
    ],
    "鲜,血": [
      "鲜血",
      "</w>"
    ],
    "s,l": [
      "sl",
      "ow"
    ],
    "研,究": [
      "研",
      "究"
    ],
    "大,量": [
      "大",
      "量"
    ],
    "的,冷": [
      "的冷却",
      "时间</w>"
    ],
    "方,<": [
      "方",
      "</w>"
    ],
    "秒,内": [
      "秒",
      "内"
    ],
    "有,着": [
      "有",
      "着"
    ],
    "统,治": [
      "统",
      "治"
    ],
    "年,<": [
      "年",
      "</w>"
    ],
    "的,战": [
      "的",
      "战"
    ],
    "留,下": [
      "留",
      "下"
    ],
    "r,o": [
      "r",
      "o"
    ],
    "射,出": [
      "射",
      "出一"
    ],
    "充,满": [
      "充",
      "满"
    ],
    "之,力": [
      "之",
      "力"
    ],
    "自,由": [
      "自",
      "由"
    ],
    "狂,怒": [
      "狂",
      "怒"
    ],
    "s,<": [
      "s",
      "</w>"
    ],
    "_,s": [
      "_st",
      "ack"
    ],
    "双,方": [
      "双",
      "方"
    ],
    "两,个": [
      "两",
      "个"
    ],
    "才,能": [
      "才",
      "能"
    ],
    "天,赋": [
      "天",
      "赋"
    ],
    "行,者": [
      "行",
      "者"
    ],
    "能,力": [
      "能",
      "力"
    ],
    "径,<": [
      "径",
      "</w>"
    ],
    "同,胞": [
      "同",
      "胞"
    ],
    "意,<": [
      "意",
      "</w>"
    ],
    "影,魔": [
      "影",
      "魔"
    ],
    "斯,拉": [
      "斯",
      "拉达"
    ],
    "森,海": [
      "森海",
      "飞霞"
    ],
    "追,踪": [
      "追",
      "踪"
    ],
    "蜘,蛛": [
      "蜘",
      "蛛"
    ],
    "地,面": [
      "地",
      "面"
    ],
    "就,能": [
      "就",
      "能"
    ],
    "移,除": [
      "移",
      "除"
    ],
    "不,朽": [
      "不朽",
      "尸"
    ],
    "似,乎": [
      "似",
      "乎"
    ],
    "永,恒": [
      "永恒",
      "的"
    ],
    "数,值": [
      "数",
      "值"
    ],
    "继,承": [
      "继",
      "承"
    ],
    "接,受": [
      "接",
      "受"
    ],
    "武,器": [
      "武",
      "器"
    ],
    "学,习": [
      "学",
      "习"
    ],
    "代,价": [
      "代价",
      "</w>"
    ],
    "光,之": [
      "光",
      "之"
    ],
    "不,停": [
      "不",
      "停"
    ],
    "了,他": [
      "了",
      "他</w>"
    ],
    "这,一": [
      "这",
      "一"
    ],
    "接,下": [
      "接下",
      "来的"
    ],
    "知,道": [
      "知",
      "道"
    ],
    "利,用": [
      "利",
      "用"
    ],
    "法,则": [
      "法则",
      "</w>"
    ],
    "师,们": [
      "师",
      "们"
    ],
    "于,是": [
      "于",
      "是"
    ],
    "发,出": [
      "发",
      "出"
    ],
    "f,f": [
      "f",
      "f"
    ],
    "无,比": [
      "无",
      "比"
    ],
    "地,图": [
      "地图",
      "上"
    ],
    "前,<": [
      "前",
      "</w>"
    ],
    "内,的": [
      "内",
      "的"
    ],
    "远,古": [
      "远",
      "古"
    ],
    "削,弱": [
      "削",
      "弱"
    ],
    "生,效": [
      "生",
      "效"
    ],
    "师,的": [
      "师",
      "的"
    ],
    "这,种": [
      "这",
      "种"
    ],
    "t,a": [
      "t",
      "ack"
    ],
    "_,p": [
      "_",
      "percen"
    ],
    "被,减": [
      "被",
      "减缓</w>"
    ],
    "后,会": [
      "后",
      "会"
    ],
    "全,能": [
      "全能",
      "之神"
    ],
    "战,<": [
      "战",
      "</w>"
    ],
    "而,且": [
      "而",
      "且"
    ],
    "因,此": [
      "因",
      "此"
    ],
    "以,后": [
      "以",
      "后</w>"
    ],
    "无,数": [
      "无",
      "数"
    ],
    "化,的": [
      "化",
      "的"
    ],
    "并,造": [
      "并",
      "造成"
    ],
    "冥,魂": [
      "冥魂",
      "大帝"
    ],
    "里,的": [
      "里",
      "的"
    ],
    "立,刻": [
      "立",
      "刻"
    ],
    "对,于": [
      "对",
      "于"
    ],
    "游,侠": [
      "游",
      "侠"
    ],
    "隐,秘": [
      "隐",
      "秘"
    ],
    "复,制": [
      "复",
      "制"
    ],
    "哈,斯": [
      "哈斯",
      "卡"
    ],
    "之,境": [
      "之",
      "境"
    ],
    "拉,娜": [
      "拉娜",
      "娅"
    ],
    "炼,金": [
      "炼金",
      "术士"
    ],
    "满,足": [
      "满",
      "足"
    ],
    "刃,<": [
      "刃",
      "</w>"
    ],
    "强,<": [
      "强",
      "</w>"
    ],
    "h,2": [
      "h",
      "2</w>"
    ],
    "准,备": [
      "准",
      "备"
    ],
    "寒,冰": [
      "寒",
      "冰"
    ],
    "瑞,斯": [
      "瑞",
      "斯"
    ],
    "大,多": [
      "大",
      "多数"
    ],
    "飞,霞": [
      "飞",
      "霞"
    ],
    "的,等": [
      "的",
      "等级</w>"
    ],
    "属,性": [
      "属",
      "性"
    ],
    "创,世": [
      "创",
      "世"
    ],
    "者,的": [
      "者",
      "的"
    ],
    "早,已": [
      "早",
      "已"
    ],
    "完,成": [
      "完",
      "成"
    ],
    "工,作": [
      "工",
      "作"
    ],
    "一,起": [
      "一",
      "起"
    ],
    "命,<": [
      "命",
      "</w>"
    ],
    "只,是": [
      "只",
      "是"
    ],
    "选,择": [
      "选",
      "择"
    ],
    "主,宰": [
      "主",
      "宰"
    ],
    "夜,晚": [
      "夜",
      "晚"
    ],
    "自,我": [
      "自",
      "我"
    ],
    "触,发": [
      "触",
      "发"
    ],
    "无,敌": [
      "无",
      "敌"
    ],
    "迷,雾": [
      "迷",
      "雾"
    ],
    "孩,子": [
      "孩",
      "子"
    ],
    "都,在": [
      "都",
      "在"
    ],
    "虽,然": [
      "虽",
      "然"
    ],
    "必,须": [
      "必",
      "须"
    ],
    "种,族": [
      "种",
      "族"
    ],
    "箭,<": [
      "箭",
      "</w>"
    ],
    "b,u": [
      "buff",
      "_duration</w>"
    ],
    "岩,石": [
      "岩",
      "石"
    ],
    "言,<": [
      "言",
      "</w>"
    ],
    "叠,加": [
      "叠",
      "加</w>"
    ],
    "的,距": [
      "的",
      "距离"
    ],
    "8,<": [
      "8",
      "</w>"
    ],
    "这,片": [
      "这",
      "片"
    ],
    "地,狱": [
      "地",
      "狱"
    ],
    "燃,烧": [
      "燃",
      "烧"
    ],
    "之,中": [
      "之",
      "中</w>"
    ],
    "禁,锢": [
      "禁",
      "锢"
    ],
    "e,r": [
      "e",
      "r"
    ],
    "阵,亡": [
      "阵亡",
      "</w>"
    ],
    "烈,火": [
      "烈",
      "火"
    ],
    "义,<": [
      "义",
      "</w>"
    ],
    "看,到": [
      "看",
      "到"
    ],
    "处,的": [
      "处",
      "的"
    ],
    "世,间": [
      "世",
      "间"
    ],
    "将,自": [
      "将",
      "自身"
    ],
    "开,<": [
      "开",
      "</w>"
    ],
    "士,兵": [
      "士",
      "兵"
    ],
    "着,一": [
      "着",
      "一"
    ],
    "扭,曲": [
      "扭",
      "曲"
    ],
    "重,新": [
      "重",
      "新"
    ],
    "爆,发": [
      "爆发",
      "</w>"
    ],
    "决,定": [
      "决定",
      "</w>"
    ],
    "高,<": [
      "高",
[...]
